<pad>	0
<unk>	0
<s>	0
</s>	0
[CLS]	0
[SEP]	0
[MASK]	0
▁.	-3.7069
▁	-3.98058
▁,	-4.24085
i	-4.93375
a	-4.97778
▁-	-5.3192
▁।	-5.42656
e	-5.48958
▁'	-5.65072
▁)	-5.67146
▁(	-5.68881
t	-5.81722
r	-5.83505
m	-5.84155
o	-5.95688
▁"	-5.96779
na	-5.97229
ni	-6.00488
n	-6.04679
▁kii	-6.10552
an	-6.13889
k	-6.16976
u	-6.18359
ta	-6.1956
s	-6.20437
▁mein	-6.20595
y	-6.2366
ma	-6.24606
▁kay	-6.25596
h	-6.34165
ya	-6.39499
▁:	-6.39534
▁kaa	-6.4092
da	-6.44327
ra	-6.51565
ka	-6.53611
ti	-6.55157
▁aur	-6.55382
▁ra	-6.56987
l	-6.66005
▁hay	-6.66544
d	-6.67416
le	-6.68066
on	-6.68703
la	-6.70074
am	-6.7176
ko	-6.74131
ne	-6.76268
ৰ	-6.79817
di	-6.80991
▁᱾	-6.81857
re	-6.87194
or	-6.90984
▁say	-6.91024
▁کے	-6.92547
ba	-6.95294
▁۔	-6.95384
▁key	-6.95764
p	-6.97198
ar	-6.98489
▁ga	-6.98924
▁parr	-7.00651
▁jee	-7.00947
li	-7.01394
▁iss	-7.01414
gi	-7.0219
क	-7.02839
at	-7.03184
ं	-7.03282
er	-7.04617
te	-7.08374
ri	-7.08509
b	-7.09741
ah	-7.09794
,	-7.10519
न	-7.12191
▁کی	-7.13329
▁di	-7.14627
ee	-7.1489
ga	-7.15062
▁da	-7.17697
▁de	-7.17702
ی	-7.21496
▁میں	-7.21843
▁chhe	-7.22314
▁nay	-7.22564
▁bi	-7.23016
ak	-7.23214
ত	-7.23253
▁kuu	-7.2354
नि	-7.23931
ch	-7.24629
al	-7.24685
▁ou	-7.25025
g	-7.257
v	-7.26216
ki	-7.26549
lo	-7.27343
▁के	-7.27407
ी	-7.27544
sa	-7.28505
▁oo	-7.29756
ن	-7.29806
▁/	-7.30181
▁dee	-7.30714
de	-7.30881
th	-7.32115
va	-7.32846
ke	-7.32971
▁na	-7.33497
z	-7.34105
.	-7.34797
ru	-7.35321
▁،	-7.35395
▁naa	-7.35481
त	-7.35906
▁ni	-7.3592
▁ہے	-7.36632
▁1	-7.37546
ot	-7.37658
j	-7.38249
ہ	-7.38783
मा	-7.39237
to	-7.39913
▁Urdu	-7.41904
▁Kashmiri	-7.41981
▁Bodo	-7.42025
▁Santali	-7.42125
kar	-7.42163
▁Konkani	-7.42173
▁Hindi	-7.42216
▁Sanskrit	-7.42252
▁Assamese	-7.42259
▁Sindhi	-7.42264
▁Bangla	-7.423
र	-7.42308
▁Tamil	-7.42315
▁Telugu	-7.42316
▁Punjabi	-7.42317
▁Marathi	-7.42319
▁Manipuri	-7.42322
▁Nepali	-7.42322
▁Malayalam	-7.42323
▁Kannada	-7.42326
▁Oriya	-7.42328
▁Gujarati	-7.42334
▁Maithili	-7.42342
▁Dogr	-7.42343
ल	-7.43454
▁kahh	-7.43572
▁اور	-7.43706
ha	-7.43967
▁be	-7.4451
w	-7.44868
▁hih	-7.46414
▁fo	-7.46452
▁dey	-7.47024
▁[	-7.47536
▁haye	-7.47722
▁]	-7.48415
▁e	-7.49472
x	-7.49905
pa	-7.52493
▁کہ	-7.53118
hi	-7.53449
▁te	-7.53613
▁haii	-7.54195
lu	-7.54503
f	-7.55088
yo	-7.55581
▁ca	-7.55702
▁سے	-7.55718
▁bhee	-7.57109
ye	-7.57472
vi	-7.58444
ik	-7.58457
ক	-7.58516
in	-7.58579
▁ai	-7.59686
si	-7.60132
ा	-7.60351
ja	-7.61283
ا	-7.61602
▁haine	-7.6216
▁aaru	-7.6221
को	-7.62675
▁کا	-7.628
ন	-7.63985
▁jaa	-7.6478
▁2	-7.65388
ok	-7.6546
naa	-7.65485
▁daa	-7.6579
▁आ	-7.66156
म	-7.66479
um	-7.66797
▁inn	-7.67117
un	-7.67725
و	-7.67823
▁yaa	-7.68006
ي	-7.68421
tu	-7.69683
▁va	-7.69726
ে	-7.69802
▁koo	-7.69822
े	-7.70837
sh	-7.71079
me	-7.71844
▁کو	-7.72181
ले	-7.72584
thi	-7.72816
c	-7.72826
du	-7.73302
nu	-7.73473
no	-7.73942
स	-7.74131
▁ko	-7.74905
▁sa	-7.75541
il	-7.76016
▁bu	-7.76326
▁?	-7.76681
▁witch	-7.77069
▁3	-7.77234
▁pra	-7.77882
র	-7.77884
▁aaa	-7.78138
▁a	-7.78261
cha	-7.78344
ai	-7.78427
ao	-7.78732
ana	-7.79176
▁ja	-7.79445
▁ha	-7.79535
▁جي	-7.79744
▁vi	-7.79781
▁thaa	-7.804
▁में	-7.80598
mi	-7.80617
ku	-7.8068
▁aa	-7.8098
q	-7.8102
▁اس	-7.81141
ना	-7.81192
ro	-7.81314
ji	-7.8132
▁پر	-7.8148
tha	-7.82248
lai	-7.82929
iya	-7.8294
▁o	-7.83522
ला	-7.83756
bi	-7.83769
ng	-7.83871
▁u	-7.84247
▁5	-7.84353
،	-7.84355
it	-7.84751
▁ek	-7.84778
nai	-7.85135
का	-7.85299
▁10	-7.86136
ل	-7.8662
kh	-7.86654
▁maa	-7.87053
man	-7.87366
che	-7.87459
em	-7.87517
▁f	-7.87762
▁keh	-7.87876
kwo	-7.88133
▁ᱨᱮ	-7.88318
nw	-7.88411
▁aanee	-7.88576
▁अ	-7.89059
ay	-7.89072
▁seey	-7.89109
ল	-7.89224
▁aahi	-7.8981
س	-7.89888
▁v	-7.90261
ے	-7.90336
▁san	-7.90506
ada	-7.90811
▁so	-7.90874
as	-7.91306
▁है	-7.91823
▁ᱫᱚ	-7.9228
▁noon	-7.92405
▁نے	-7.92419
chi	-7.92429
▁cha	-7.92492
se	-7.92592
en	-7.93347
وں	-7.93355
▁baa	-7.9347
▁pi	-7.93564
व	-7.93965
ର	-7.9408
▁joo	-7.94322
م	-7.94503
▁chha	-7.95309
▁ti	-7.95483
pi	-7.9603
wa	-7.96638
▁atey	-7.96715
ରେ	-7.9694
▁su	-7.96941
ने	-7.9811
▁न	-7.98684
▁की	-7.98819
▁છે	-7.99438
य	-8.00029
▁je	-8.00079
▁par	-8.00098
▁sam	-8.00464
▁yaha	-8.0091
▁4	-8.01103
▁का	-8.01444
▁hoy	-8.01514
aan	-8.01519
▁eek	-8.01687
ता	-8.01976
ge	-8.02311
᱾	-8.02475
ज	-8.02573
▁how	-8.03021
▁kar	-8.03023
▁arw	-8.03894
▁ਦੇ	-8.04481
▁جو	-8.04625
ad	-8.04652
▁ee	-8.05117
▁see	-8.05148
▁र	-8.05166
▁teey	-8.05227
ः	-8.05252
▁khaan	-8.05331
▁wa	-8.0652
▁man	-8.0654
▁۾	-8.06658
▁को	-8.06935
▁taa	-8.07413
▁saa	-8.07519
ম	-8.07539
▁i	-8.07609
▁go	-8.07816
ara	-8.07955
▁s	-8.07986
▁kirr	-8.08006
▁एक	-8.08195
▁च	-8.08421
ve	-8.0869
ت	-8.08869
▁ان	-8.08887
▁rar	-8.09246
▁;	-8.09393
su	-8.09627
▁ouxfc	-8.09702
▁%	-8.09854
pur	-8.10018
▁gi	-8.10072
ari	-8.10359
are	-8.10672
▁aneey	-8.10815
না	-8.11046
▁eka	-8.11362
yam	-8.11474
▁ਹੈ	-8.12015
प	-8.12059
▁se	-8.12222
ই	-8.12255
bo	-8.12315
▁liye	-8.12377
▁स	-8.124
▁gfxf	-8.12439
▁18	-8.1253
▁nahein	-8.12874
ट	-8.13059
kal	-8.13391
ᱱ	-8.13848
▁no	-8.13936
▁से	-8.14229
▁sha	-8.14414
▁jo	-8.14928
ane	-8.15097
▁क	-8.1543
var	-8.15445
▁baad	-8.15943
नो	-8.16008
▁pa	-8.16838
ದ	-8.16943
▁kath	-8.16972
ir	-8.1702
ം	-8.17449
▁kiyaa	-8.18041
▁lo	-8.18465
chya	-8.18531
vu	-8.18866
▁la	-8.19454
▁wah	-8.20063
▁दे	-8.20265
▁ei	-8.20792
च	-8.20796
be	-8.20818
▁tee	-8.21102
▁ہیں	-8.21164
ের	-8.21303
aa	-8.21644
san	-8.21875
▁koraa	-8.21892
yi	-8.21896
sha	-8.21961
▁م	-8.21997
0	-8.22144
▁8	-8.22291
▁kha	-8.22304
khi	-8.2247
▁thee	-8.2299
tar	-8.23141
▁po	-8.23186
া	-8.23435
▁पर	-8.23697
▁6	-8.23847
▁aap	-8.24025
bu	-8.24374
▁!	-8.24466
▁و	-8.24701
▁हो	-8.24936
ani	-8.24982
▁tha	-8.25037
maa	-8.25488
▁teh	-8.25809
▁ba	-8.25896
yu	-8.2594
▁oh	-8.26329
▁ho	-8.26728
el	-8.26862
shi	-8.26935
ರ	-8.27074
ey	-8.27119
taa	-8.27737
▁tuu	-8.27748
रा	-8.27832
▁ते	-8.27968
▁کر	-8.28191
ના	-8.28228
wi	-8.28279
thu	-8.28345
▁আৰু	-8.28349
द	-8.28634
▁ji	-8.28863
▁pro	-8.29078
ur	-8.29162
▁asi	-8.29475
म्	-8.2948
ब	-8.29588
▁bor	-8.29829
▁ब	-8.29919
▁mar	-8.2997
ਨ	-8.30229
he	-8.30614
do	-8.30878
ھ	-8.3159
▁si	-8.31783
▁ᱠᱚ	-8.31982
ों	-8.32481
▁achhi	-8.32801
ant	-8.33218
ব	-8.33218
ر	-8.33336
ली	-8.33803
▁ᱟᱨ	-8.33922
po	-8.33928
ِ	-8.34113
ड	-8.34119
▁ke	-8.34203
▁ro	-8.34278
▁lai	-8.34485
nee	-8.34533
▁maan	-8.34556
▁ta	-8.3456
▁may	-8.34736
▁do	-8.34739
▁म	-8.35621
▁naam	-8.35785
▁aahe	-8.35842
dar	-8.36054
ina	-8.36136
▁۽	-8.36151
han	-8.36282
▁para	-8.36462
van	-8.36513
▁gayaa	-8.37014
▁hain	-8.37073
▁আ	-8.37408
▁प्र	-8.37548
ਲ	-8.38173
een	-8.38338
ala	-8.38381
nay	-8.38486
▁ar	-8.38766
▁akh	-8.38999
د	-8.39337
▁to	-8.39372
yan	-8.39376
▁haajat	-8.39499
ની	-8.39612
dha	-8.39804
ै	-8.40019
ం	-8.40054
yaa	-8.40176
▁অ	-8.40251
▁mo	-8.40346
ca	-8.40561
tta	-8.40658
kka	-8.40684
▁khee	-8.40715
▁ebong	-8.40953
dhi	-8.40972
▁maha	-8.41183
या	-8.41435
▁20	-8.41975
▁7	-8.42259
▁प	-8.42657
▁ka	-8.43081
nam	-8.43098
oon	-8.43147
ो	-8.43242
▁bar	-8.43301
ம்	-8.43305
ि	-8.43341
ab	-8.43569
bha	-8.43794
nna	-8.44084
▁ya	-8.44228
▁sar	-8.44433
री	-8.44488
ग	-8.44636
▁उ	-8.4487
▁al	-8.44933
▁व	-8.45163
tee	-8.45227
ان	-8.45318
▁बे	-8.45323
खौ	-8.45679
ং	-8.45704
ী	-8.46115
માં	-8.46156
▁ki	-8.46488
ੇ	-8.46594
ᱞ	-8.4674
▁vee	-8.47034
ک	-8.47186
▁jana	-8.4722
▁15	-8.47484
sar	-8.47673
▁saath	-8.47697
▁जा	-8.48186
ing	-8.48188
▁ikk	-8.48311
▁pani	-8.48445
▁ਦੀ	-8.48473
▁gṭhax	-8.48568
▁ne	-8.48808
▁qa	-8.489
bar	-8.48946
vaa	-8.49145
▁aasa	-8.49176
ण	-8.49355
gu	-8.49372
ન	-8.49574
ek	-8.49792
▁re	-8.49996
har	-8.50253
▁saan	-8.50431
▁वि	-8.50468
▁lu	-8.50607
go	-8.50917
▁mattu	-8.51084
▁juu	-8.51084
স	-8.51136
▁fa	-8.51237
es	-8.5129
প	-8.5133
▁naal	-8.51448
▁dwara	-8.51559
ز	-8.51602
▁ᱟ	-8.51842
ram	-8.51965
▁manz	-8.51995
বা	-8.52324
ꯒꯤ	-8.5245
ᱭ	-8.52663
dan	-8.52693
▁19	-8.52766
▁12	-8.52833
▁दा	-8.52963
▁کیا	-8.5304
▁नि	-8.53395
ات	-8.53421
▁keey	-8.53495
kha	-8.53519
gala	-8.53536
▁laee	-8.53643
য়	-8.53835
ran	-8.54081
▁saha	-8.54168
▁hoi	-8.54249
cho	-8.54752
ck	-8.54855
im	-8.54892
▁cu	-8.55119
▁ma	-8.55226
▁कर	-8.5524
war	-8.55352
jan	-8.55361
▁le	-8.55415
▁za	-8.55511
▁allah	-8.55519
आ	-8.55543
lla	-8.55791
▁ਨੂੰ	-8.5594
چ	-8.55957
▁du	-8.55974
▁gaa	-8.56053
▁मा	-8.56066
▁त	-8.56366
ો	-8.56446
▁kan	-8.56519
nd	-8.56656
nda	-8.56792
ho	-8.56842
▁بھی	-8.56849
▁सा	-8.56869
▁ایک	-8.57041
▁=	-8.57093
ह	-8.57096
pra	-8.57162
ᱥ	-8.57164
▁ਅਤੇ	-8.57207
aka	-8.57217
▁9	-8.57844
ayi	-8.57905
tra	-8.57918
ਕ	-8.57971
▁outfc	-8.58036
▁oru	-8.58374
▁am	-8.58389
ನ	-8.58523
গী	-8.58849
ित	-8.59244
▁prati	-8.5944
▁gu	-8.59448
ੀ	-8.59466
ല	-8.59516
▁jiss	-8.59516
ب	-8.59527
▁ਵਿੱਚ	-8.59601
tho	-8.59802
▁বা	-8.60133
ᱨ	-8.60198
▁یہ	-8.60217
yat	-8.60273
▁neey	-8.60289
ಯ	-8.60313
▁mu	-8.60319
▁meyi	-8.60553
▁kore	-8.60629
▁تو	-8.60732
ech	-8.6078
▁bha	-8.61046
▁yo	-8.611
▁saathi	-8.61174
▁S	-8.61436
▁ju	-8.61514
ી	-8.61612
tan	-8.61677
▁naha	-8.61686
ર	-8.61727
▁k	-8.62021
der	-8.62094
▁hunn	-8.62261
▁और	-8.62451
galu	-8.62459
ul	-8.62631
▁as	-8.62765
▁hii	-8.62824
▁এই	-8.62855
▁an	-8.62883
▁આ	-8.62896
ନ	-8.63027
the	-8.6319
▁mi	-8.63348
▁pakistan	-8.63398
▁aam	-8.63547
dh	-8.63728
▁he	-8.63765
▁या	-8.64026
ల	-8.64035
▁ع	-8.64264
ે	-8.64322
▁in	-8.64329
नाय	-8.64535
ol	-8.64687
▁vaa	-8.64753
ક	-8.64944
▁ney	-8.65009
▁ا	-8.65014
▁anu	-8.65214
ँ	-8.65216
वा	-8.65386
▁ae	-8.65631
▁pe	-8.65687
दा	-8.65708
ते	-8.65782
▁कि	-8.65847
ṭ	-8.65895
pu	-8.65926
▁az	-8.65946
tt	-8.6598
kari	-8.66191
▁hu	-8.66204
ਰ	-8.6655
pe	-8.66649
▁आरो	-8.67093
nanwi	-8.67105
ਾਂ	-8.67146
▁pari	-8.67247
bw	-8.67259
न्	-8.67368
naba	-8.67387
tam	-8.67401
श	-8.67548
▁hi	-8.67747
▁হয়	-8.67908
▁छ	-8.67939
▁toon	-8.67942
▁அ	-8.68124
લ	-8.683
▁gotsh	-8.68302
▁A	-8.68316
ਸ	-8.68552
is	-8.68581
▁বি	-8.68792
gal	-8.68858
▁kae	-8.69004
nt	-8.69113
ppa	-8.69136
st	-8.69261
▁ama	-8.69273
▁અને	-8.69479
▁poraa	-8.69968
▁दी	-8.70134
▁saal	-8.70187
▁kara	-8.70277
▁ᱨᱮᱱᱟᱜ	-8.70283
?	-8.70283
▁nee	-8.70529
▁woo	-8.7061
sta	-8.70633
▁ن	-8.70696
yil	-8.70829
ਮ	-8.71133
िक	-8.71142
▁aas	-8.71456
▁ani	-8.71547
്	-8.71685
ika	-8.71781
so	-8.71803
তে	-8.71829
▁pu	-8.71974
▁masin	-8.7212
▁jaan	-8.72132
ون	-8.72169
▁ম	-8.72519
▁17	-8.72572
▁बि	-8.72714
haru	-8.7277
▁এ	-8.72838
ein	-8.73207
▁karane	-8.7331
▁kaam	-8.73326
▁mana	-8.73372
দ	-8.73409
▁paa	-8.73412
▁r	-8.73541
riya	-8.73586
▁kahaa	-8.73622
▁ने	-8.73659
▁इ	-8.73741
ি	-8.7379
jwng	-8.73827
ٹ	-8.74059
▁ہو	-8.74486
▁too	-8.74618
▁س	-8.74684
ree	-8.75057
ita	-8.7511
yon	-8.75167
ें	-8.75308
ू	-8.75311
లు	-8.75451
je	-8.75505
kku	-8.75546
▁swa	-8.75587
ও	-8.75828
▁16	-8.75932
mo	-8.76054
मे	-8.76152
▁ಅ	-8.76225
ाव	-8.76363
▁ack	-8.76376
नी	-8.76417
kaar	-8.76427
▁हा	-8.76577
জ	-8.76607
▁pha	-8.76685
▁hinn	-8.7685
av	-8.77006
of	-8.77108
▁نہیں	-8.77154
▁kori	-8.77392
ती	-8.77425
nn	-8.77531
യ	-8.77573
▁bharat	-8.77661
টি	-8.7791
anam	-8.78135
ര	-8.78259
ه	-8.78296
▁desh	-8.78456
▁takk	-8.78471
et	-8.78583
▁eee	-8.78662
▁ऐ	-8.78795
ख	-8.79025
ர்	-8.7907
▁11	-8.79103
fi	-8.79281
▁ui	-8.79478
▁tu	-8.79504
▁jan	-8.79612
▁karnay	-8.7968
پ	-8.80123
▁ह	-8.80131
ش	-8.80141
▁14	-8.80154
▁nam	-8.80202
▁آهي	-8.80202
▁pada	-8.8021
ꯗ	-8.80274
▁ku	-8.80358
स्य	-8.80599
sin	-8.80726
agi	-8.80798
सा	-8.81188
নি	-8.81204
ju	-8.81283
▁ad	-8.81335
`	-8.81511
kan	-8.8155
▁_	-8.81552
▁diyaa	-8.81741
▁ग	-8.81923
lam	-8.81933
▁ge	-8.82259
▁chhu	-8.824
▁|	-8.82512
▁maxab	-8.82532
▁che	-8.82565
ി	-8.82594
ট	-8.82959
▁hyee	-8.82968
ndi	-8.82984
▁30	-8.83265
▁ज	-8.83313
۔	-8.83483
ു	-8.83894
േ	-8.83984
▁ikr	-8.84102
ali	-8.84138
▁neh	-8.84261
▁ban	-8.84404
▁پ	-8.84417
▁ए	-8.84484
▁وہ	-8.84503
ata	-8.84578
দা	-8.84579
ار	-8.84645
xf	-8.84826
ꯅ	-8.84875
ವ	-8.8491
▁0	-8.84911
rat	-8.84969
ர	-8.85038
ttu	-8.8507
tah	-8.85247
ർ	-8.85283
▁نہ	-8.85397
▁chaa	-8.85497
▁raj	-8.85583
▁pee	-8.85679
▁upa	-8.85855
▁pai	-8.8587
▁bo	-8.85944
ర్	-8.86082
ton	-8.86191
ll	-8.86271
ꯕ	-8.86442
▁bhar	-8.86512
yen	-8.86522
oo	-8.86634
വ	-8.86691
ਤ	-8.86953
ava	-8.87167
aya	-8.87224
▁ᱠᱟᱱᱟ	-8.87262
aru	-8.87301
ರ್	-8.87306
she	-8.87339
▁apnay	-8.87466
મ	-8.87621
▁ব	-8.87628
tri	-8.87675
▁ꯑꯁꯤ	-8.87689
ને	-8.87782
pan	-8.87839
▁br	-8.87842
ൻ	-8.87861
▁അ	-8.87961
▁सु	-8.88487
▁হ	-8.88526
ꯟ	-8.88616
▁ਦਾ	-8.88645
▁ক	-8.88833
வ	-8.88876
▁xa	-8.88982
▁सं	-8.89049
▁xajf	-8.8935
▁ru	-8.89364
▁bas	-8.8954
ᱢ	-8.89624
▁gai	-8.89787
बो	-8.89952
କ	-8.89985
▁thay	-8.89988
▁ب	-8.90056
▁madhya	-8.90181
▁द	-8.90378
zi	-8.90422
ന	-8.90489
વા	-8.90742
jo	-8.90783
▁mae	-8.91308
▁kendra	-8.91323
जा	-8.91327
▁ꯃꯁꯤꯡ	-8.91435
▁मे	-8.91518
তা	-8.9156
tti	-8.91572
par	-8.91792
▁laa	-8.91817
▁aahin	-8.91959
ാ	-8.92269
ed	-8.92289
shan	-8.92375
च्या	-8.9243
▁ই	-8.92438
▁13	-8.92479
ਾ	-8.9262
▁hoo	-8.92694
▁haa	-8.92791
ಸ್	-8.92834
▁అ	-8.92918
▁इस	-8.93188
za	-8.93384
▁li	-8.93404
ᱠ	-8.93623
ன்	-8.93624
ف	-8.9377
▁chhoa	-8.9377
▁nai	-8.93849
ା	-8.93875
nka	-8.93945
▁maate	-8.93966
க்	-8.94018
lem	-8.94035
▁anya	-8.94144
▁thiyo	-8.94322
▁>	-8.94373
ति	-8.94697
து	-8.94748
▁ih	-8.94754
ು	-8.94845
য়ে	-8.95064
▁ও	-8.95139
▁baabe	-8.95214
ین	-8.95358
ᱛ	-8.95403
▁ना	-8.95453
yao	-8.9552
sim	-8.95694
us	-8.95725
▁rajya	-8.95733
्य	-8.95765
▁naheen	-8.95946
െ	-8.96059
କୁ	-8.96111
rah	-8.9632
▁lag	-8.96336
tay	-8.96414
asya	-8.96461
ல்	-8.96534
adi	-8.96753
▁jam	-8.96781
iyon	-8.96818
ర	-8.96891
▁वा	-8.96908
▁था	-8.96924
লি	-8.96934
▁இ	-8.96967
▁ath	-8.96993
▁मु	-8.97027
▁mas	-8.97101
mu	-8.97134
▁ᱛᱮ	-8.97291
▁amani	-8.97468
▁takai	-8.97585
▁آ	-8.97842
ळ	-8.9785
wan	-8.98007
yum	-8.98032
हा	-8.98141
dwng	-8.98206
galannu	-8.98209
న	-8.98348
▁roop	-8.9835
ಲ	-8.9838
ौ	-8.98431
tor	-8.98439
kam	-8.98488
▁बा	-8.98541
ح	-8.98672
▁taar	-8.98827
▁kiya	-8.98832
▁স	-8.98959
▁आनी	-8.98985
ñ	-8.99005
▁dha	-8.99084
ো	-8.99109
یں	-8.99265
▁pann	-8.99324
vo	-8.99347
হ	-8.99385
▁حاجت	-8.99677
▁ꯃ	-8.99709
▁chi	-8.99812
্য	-8.99834
ق	-8.99855
ور	-8.99894
लाई	-9.0004
ণ	-9.00356
▁tath	-9.00556
▁چ	-9.00558
▁bhaarat	-9.00654
മ	-9.00784
▁mukhya	-9.0086
ಕ	-9.00862
▁जे	-9.00867
▁आहे	-9.00919
ത	-9.00976
▁co	-9.0104
▁अछि	-9.01079
ക	-9.01151
▁pura	-9.01187
▁पा	-9.0119
alu	-9.01207
gar	-9.01211
نے	-9.01468
▁fi	-9.01482
▁nahee	-9.01601
▁aan	-9.01618
ਣ	-9.01633
▁nir	-9.01705
கள்	-9.02049
▁جا	-9.02053
▁25	-9.0212
▁kannai	-9.02209
▁C	-9.02284
ോ	-9.02363
▁xo	-9.02421
fa	-9.02446
▁ri	-9.02499
ron	-9.0282
gaa	-9.02892
ter	-9.02914
▁श	-9.02941
mba	-9.03033
▁tho	-9.0317
से	-9.03589
গ	-9.03667
chu	-9.03695
▁ud	-9.03988
▁behe	-9.04186
ᱱᱟ	-9.04441
▁tathaa	-9.04463
▁aseh	-9.04464
ع	-9.04483
▁khodaya	-9.04611
raj	-9.04644
▁beh	-9.04682
▁of	-9.04707
▁rakh	-9.04793
▁ش	-9.04915
▁mah	-9.05005
▁cho	-9.05081
▁کتھ	-9.05111
▁bhu	-9.05213
▁rahee	-9.05249
ᱨᱤ	-9.05259
▁karee	-9.05285
സ്	-9.05402
लो	-9.05471
▁dekha	-9.05676
▁jai	-9.057
▁som	-9.05802
lli	-9.05859
িক	-9.06077
▁کي	-9.06196
ക്ക	-9.06282
ನ್	-9.06291
lee	-9.06309
▁ᱠᱷᱚᱱ	-9.06419
ત	-9.06437
▁hoay	-9.06489
▁sho	-9.06489
▁nu	-9.06547
க்க	-9.06599
ಗಳ	-9.06705
▁24	-9.06722
▁हैं	-9.06769
▁<	-9.06813
▁c	-9.0682
▁ut	-9.06841
▁dar	-9.06909
▁raja	-9.07049
▁kor	-9.07059
નો	-9.07147
റ	-9.07171
ᱴ	-9.07228
▁কৰা	-9.07305
த்த	-9.07309
ththa	-9.07313
▁kam	-9.0736
▁ہی	-9.07434
ટ	-9.07477
কে	-9.0749
iyai	-9.07508
र्	-9.07514
khya	-9.07523
tara	-9.07533
ꯔ	-9.07538
ु	-9.07615
▁the	-9.07629
▁aar	-9.07667
▁gatshe	-9.07716
▁xu	-9.0774
kara	-9.07789
َ	-9.07892
ां	-9.07987
रे	-9.08007
ᱨᱟ	-9.08025
▁भ	-9.08157
स्	-9.0824
▁aek	-9.08261
▁teu	-9.08295
▁भारत	-9.08376
ppu	-9.08542
ء	-9.08548
sana	-9.08577
▁aadi	-9.0882
▁kala	-9.09029
eko	-9.09041
iye	-9.09075
aj	-9.09126
▁joe	-9.09155
▁aamiyan	-9.09165
▁eh	-9.09171
▁tar	-9.09191
दे	-9.09273
ய	-9.09306
▁chayane	-9.09319
▁majlise	-9.09361
की	-9.09589
iyat	-9.09654
kta	-9.09698
ात	-9.09738
▁تھا	-9.09878
রি	-9.09903
ని	-9.09953
కు	-9.10041
lan	-9.10267
క	-9.10327
आव	-9.1035
▁kho	-9.10495
▁mee	-9.10515
▁ehi	-9.10525
య	-9.10676
▁tarah	-9.10692
bai	-9.10703
ale	-9.10979
▁tini	-9.11042
▁harr	-9.11153
▁door	-9.11157
रि	-9.1116
▁ਸ	-9.11167
ବ	-9.11168
ए	-9.11303
▁tara	-9.11318
▁mal	-9.11356
ମ	-9.11386
గా	-9.11406
्या	-9.11502
maan	-9.11519
्	-9.11622
▁ر	-9.11767
▁ଅ	-9.1198
aku	-9.11986
▁sak	-9.12295
ୀ	-9.12302
রা	-9.12406
▁tam	-9.12475
ᱣ	-9.12531
om	-9.12707
laa	-9.12974
শ	-9.13049
▁꯫	-9.13074
vai	-9.13078
▁बर	-9.13168
बा	-9.13216
نا	-9.13227
চ	-9.13297
▁tuh	-9.13357
ج	-9.13473
▁ghar	-9.13494
ତ	-9.13517
una	-9.13525
▁lagi	-9.13538
ુ	-9.1354
ಗ	-9.13548
dah	-9.13621
ଲ	-9.13743
▁মা	-9.13764
▁ख	-9.13813
થી	-9.13815
▁sann	-9.13831
ال	-9.13923
ून	-9.13967
lya	-9.14011
▁me	-9.14063
stha	-9.14102
▁bal	-9.14102
dam	-9.14112
ap	-9.14124
লে	-9.14209
▁curry	-9.14235
ಮ	-9.14314
▁ਤੇ	-9.14324
ine	-9.14373
▁ल	-9.14502
sam	-9.14567
ई	-9.14626
दी	-9.14765
▁ন	-9.14792
▁aeka	-9.14875
▁hoh	-9.14881
▁ag	-9.14981
ಿ	-9.14981
లో	-9.15036
▁ਇਸ	-9.15112
వ	-9.15287
▁jaataa	-9.15486
nan	-9.1549
▁gar	-9.15514
ची	-9.15559
▁b	-9.15562
ag	-9.15591
▁gf	-9.15699
▁ಆ	-9.15799
▁jaj	-9.15824
ांत	-9.15833
gh	-9.15865
के	-9.15905
ish	-9.15909
ou	-9.15933
▁જ	-9.16024
ି	-9.1613
▁ul	-9.16138
▁film	-9.16161
▁iuxfcṣf	-9.162
▁ଆ	-9.1641
वि	-9.16415
bata	-9.16452
ਟ	-9.16479
▁liay	-9.16614
▁sabh	-9.16653
id	-9.16669
▁dina	-9.16674
▁chu	-9.16769
লা	-9.16907
িত	-9.16979
▁دی	-9.1699
▁दि	-9.17044
▁ᱮ	-9.17068
▁kee	-9.1715
▁kyaa	-9.1717
؟	-9.17179
ae	-9.17372
इ	-9.17499
▁police	-9.17546
▁P	-9.17563
ട	-9.17591
▁korey	-9.17661
▁ଓ	-9.17689
▁পা	-9.17821
iyo	-9.17882
▁ᱨᱮᱭᱟᱜ	-9.17935
▁varsh	-9.17962
tai	-9.17974
son	-9.17975
ef	-9.18041
▁milk	-9.18097
▁ah	-9.1814
gat	-9.18324
▁pat	-9.18379
ರು	-9.18388
niprai	-9.18448
▁if	-9.18453
▁chhan	-9.18561
સ	-9.18604
▁pan	-9.18675
ு	-9.18826
▁50	-9.18847
if	-9.18908
mat	-9.18931
थ	-9.19298
▁pad	-9.19515
dd	-9.19674
nga	-9.19695
tro	-9.19781
▁koyee	-9.19841
chan	-9.19937
സ	-9.19948
▁hoise	-9.20012
▁toor	-9.20015
ate	-9.20074
ಗಳು	-9.20139
▁por	-9.20147
▁var	-9.2017
ce	-9.20258
दि	-9.20291
▁ashi	-9.20326
▁asa	-9.20368
ରୁ	-9.2037
▁কা	-9.20455
▁आसा	-9.20461
க	-9.20474
याव	-9.20576
▁सि	-9.20658
▁১৯	-9.21029
adalli	-9.21067
ৱ	-9.21078
चे	-9.21082
ଳ	-9.21084
▁chhee	-9.21101
▁en	-9.21144
▁میہ	-9.21175
▁proti	-9.21197
▁हे	-9.21237
▁bhag	-9.21239
▁B	-9.2124
▁প	-9.21249
▁ക	-9.21308
raa	-9.21362
▁ಕ	-9.21376
▁iuxfc	-9.21431
▁ਲਈ	-9.21465
্যা	-9.21523
▁kartay	-9.21531
মা	-9.21661
▁aaya	-9.21706
pat	-9.21736
تا	-9.21926
▁T	-9.22017
ં	-9.22083
نگ	-9.22289
▁apnee	-9.223
ু	-9.2233
hu	-9.22411
▁lei	-9.22473
▁गो	-9.22554
▁منز	-9.2259
▁humm	-9.22611
ft	-9.22618
▁hoe	-9.22624
▁kai	-9.22639
gra	-9.22656
टी	-9.22657
▁gay	-9.22671
▁uss	-9.22698
ৰা	-9.22726
▁लिए	-9.22853
ീ	-9.22865
ಸ	-9.22959
େ	-9.22966
ḍh	-9.22997
ੋ	-9.23028
lon	-9.2312
ಾ	-9.2314
▁chhal	-9.23195
od	-9.23323
थि	-9.23444
▁}	-9.23459
▁ص	-9.23464
os	-9.23474
▁waqat	-9.23476
ry	-9.23629
▁bara	-9.23663
ٕ	-9.23691
चा	-9.23805
▁ساتھی	-9.23818
த	-9.23897
▁bana	-9.23902
ல	-9.23998
▁ಮತ್ತು	-9.24012
xa	-9.24121
▁eyi	-9.24137
▁g	-9.24285
▁भी	-9.243
ડ	-9.24314
▁മ	-9.24325
ang	-9.24351
लि	-9.2452
▁ಮ	-9.24649
ப்	-9.24654
▁bfmuḍh	-9.24725
▁maar	-9.24725
જ	-9.24735
क्ष	-9.24796
hee	-9.24813
▁rang	-9.2485
til	-9.25051
▁ப	-9.25153
ೇ	-9.25181
▁mey	-9.25198
▁kal	-9.25291
▁axf	-9.25344
नानै	-9.25387
dee	-9.25438
▁singh	-9.25485
▁im	-9.25596
ڻ	-9.25609
ही	-9.25613
▁taan	-9.25616
ꯛ	-9.2562
ા	-9.2563
گ	-9.25651
خ	-9.25775
▁bee	-9.25792
ile	-9.25858
achi	-9.25863
ह्	-9.25895
▁up	-9.2591
daa	-9.25913
ன	-9.25927
త	-9.26036
▁ꯑ	-9.26073
kki	-9.26165
▁تي	-9.26214
▁এক	-9.26237
qa	-9.26356
सि	-9.2637
ᱹ	-9.26483
▁ആ	-9.26561
yal	-9.2662
यो	-9.26662
ꯝ	-9.26678
ص	-9.26817
ਸ਼	-9.26968
ൽ	-9.27027
ৰ্	-9.27033
▁phir	-9.27067
▁khel	-9.27205
▁ओ	-9.27213
▁jilla	-9.27298
we	-9.27339
▁yimen	-9.2734
▁না	-9.27352
▁*	-9.27377
ᱫ	-9.2738
▁ਕਿ	-9.27383
दों	-9.27404
lay	-9.27438
nar	-9.27465
▁kasee	-9.27467
ਦ	-9.27497
▁পৰা	-9.27582
ರಿ	-9.27619
▁I	-9.27661
▁ک	-9.27703
ᱸ	-9.27741
▁curr	-9.27754
▁ᱦᱚᱲ	-9.27759
खा	-9.27897
▁ਪ	-9.27911
सी	-9.27983
▁laga	-9.28033
iyan	-9.28046
▁chaar	-9.28071
▁ही	-9.28099
कर	-9.28131
ਪ	-9.2816
▁mea	-9.28163
▁ਅ	-9.28225
lk	-9.28294
▁ang	-9.28309
▁ve	-9.28366
angal	-9.28382
▁j	-9.28483
▁lf	-9.28488
▁ap	-9.2855
जों	-9.28599
▁isa	-9.28626
ୁ	-9.28637
sto	-9.28693
tir	-9.28697
▁yu	-9.28714
▁21	-9.28778
lah	-9.28779
▁ḍf	-9.28823
ꯡ	-9.28831
▁lok	-9.28846
▁lk	-9.28899
▁masing	-9.28921
hor	-9.29007
ment	-9.2919
▁गी	-9.29195
▁neim	-9.29277
▁mat	-9.29281
ਿਆ	-9.29385
wal	-9.29434
▁2011	-9.29531
▁and	-9.29535
▁fe	-9.29589
ಲ್	-9.29593
ಂ	-9.29731
ty	-9.29801
▁kari	-9.29995
ਵ	-9.30121
ری	-9.30131
ம	-9.30151
ati	-9.30203
▁’’	-9.30212
ۍ	-9.30308
giri	-9.30316
▁ਨਾਲ	-9.30444
az	-9.30474
▁sang	-9.30499
تی	-9.30507
ول	-9.30516
yar	-9.30545
لی	-9.30568
▁taka	-9.30575
▁bhasha	-9.30577
▁mattrum	-9.30604
▁‘	-9.30717
ula	-9.30731
▁jaaye	-9.30762
▁p	-9.30797
ᱜ	-9.30809
chha	-9.30831
▁buhh	-9.30966
fe	-9.31017
▁hotaa	-9.31032
tat	-9.31159
▁बी	-9.31198
eka	-9.31255
ndo	-9.31323
▁ال	-9.31376
▁iti	-9.31376
▁‘‘	-9.31405
▁pori	-9.3143
'	-9.31433
ama	-9.31529
▁upalabdh	-9.31575
▁theke	-9.31595
ڪ	-9.31606
dhan	-9.3163
ಡ	-9.3164
▁কৰে	-9.31708
▁thu	-9.31729
▁ਤੋਂ	-9.31777
▁ਹਨ	-9.31798
▁har	-9.3183
ito	-9.31966
ತ	-9.31992
dagi	-9.32023
రి	-9.32236
ପ	-9.32429
▁tanai	-9.32483
▁tan	-9.32516
▁க	-9.32548
iaa	-9.32604
▁adu	-9.32638
▁kaaran	-9.32646
▁samay	-9.32682
▁چھ	-9.32769
▁maḍh	-9.32824
ंग	-9.32846
▁ఆ	-9.32907
fc	-9.32926
aga	-9.32942
▁kaee	-9.33242
aat	-9.33557
▁প্ৰ	-9.33569
▁اللہ	-9.33585
▁mun	-9.33647
તા	-9.33672
▁sindh	-9.33693
▁amadi	-9.33705
▁yeh	-9.33734
▁ਨੇ	-9.33763
sya	-9.33768
▁ل	-9.33853
▁aaj	-9.33875
▁dekh	-9.33878
op	-9.34025
गा	-9.34035
▁ج	-9.34048
▁तथा	-9.34094
▁ika	-9.3412
jon	-9.34121
▁vai	-9.34248
▁mam	-9.34358
▁કે	-9.34376
त्	-9.34455
ಗೆ	-9.3451
▁henna	-9.3459
▁ava	-9.34674
▁jabb	-9.34755
ೆ	-9.3476
▁yaay	-9.34831
▁mahila	-9.34912
कार	-9.34915
▁gha	-9.34959
▁গ	-9.34972
న్	-9.35
▁تھوومت	-9.35059
▁د	-9.35078
▁گوژ	-9.35093
কা	-9.35124
▁thoo	-9.35176
্	-9.35222
ini	-9.35246
વ	-9.35247
▁is	-9.35306
ori	-9.35309
▁hukumat	-9.3542
▁kas	-9.35475
▁pala	-9.35489
ను	-9.35523
▁agar	-9.35595
▁ab	-9.3561
ض	-9.3575
▁تہ	-9.35764
▁जो	-9.3582
fñ	-9.35924
ದಲ್ಲಿ	-9.3603
era	-9.36049
▁xaṅf	-9.36063
বি	-9.36094
▁paain	-9.36261
ಕ್	-9.36339
▁bhi	-9.36343
iaan	-9.36357
ulu	-9.36399
vat	-9.36457
uwa	-9.36475
ਡ	-9.36491
▁گو	-9.36567
రు	-9.36581
rai	-9.36601
bhi	-9.36842
▁usa	-9.36933
▁day	-9.36954
▁ਚ	-9.37024
ത്	-9.37072
ు	-9.37078
▁hyaa	-9.37192
▁rahay	-9.374
▁curran	-9.37412
▁kshetra	-9.37422
ட	-9.37493
▁tri	-9.37588
badi	-9.37605
▁kintu	-9.3764
kat	-9.37662
ల్	-9.37714
ob	-9.37764
ും	-9.3785
▁आणि	-9.3787
ప	-9.37905
▁ল	-9.37907
वर	-9.37908
▁کان	-9.37962
▁...	-9.37968
ೀ	-9.38074
▁wi	-9.38156
▁badh	-9.38189
▁vo	-9.38352
▁kartaa	-9.38484
▁jala	-9.3853
ਰੀ	-9.38557
▁ਇੱਕ	-9.38619
uva	-9.38776
ष	-9.3879
▁من	-9.38889
খ	-9.38928
ntha	-9.38997
▁અ	-9.39026
▁baath	-9.39098
ঁ	-9.39191
ڈ	-9.39336
▁dho	-9.39391
lf	-9.39391
র্	-9.3942
▁bad	-9.39527
▁duniya	-9.39566
ela	-9.39579
▁keeta	-9.39583
▁uh	-9.39671
▁ପ	-9.39673
▁নি	-9.39676
▁ف	-9.39738
▁uttar	-9.39787
نی	-9.39814
uk	-9.39882
shya	-9.39915
ham	-9.4001
oni	-9.4008
kk	-9.40098
eet	-9.40334
ভ	-9.40344
ரி	-9.40376
ين	-9.404
ud	-9.4045
▁apane	-9.40462
▁bay	-9.40464
▁baar	-9.40479
nah	-9.40525
▁gw	-9.40556
sil	-9.40615
co	-9.40621
টা	-9.40719
ci	-9.40721
ري	-9.40742
▁lam	-9.40782
bur	-9.40813
▁پی	-9.40845
▁koee	-9.40851
ac	-9.40934
▁جن	-9.4099
nni	-9.40997
ray	-9.41008
ाई	-9.41014
▁کرنے	-9.41074
▁آپ	-9.41125
▁ᱦᱚᱱᱚᱛ	-9.41195
▁sarkaar	-9.41236
▁hai	-9.41254
▁22	-9.41272
▁mur	-9.41298
▁gaee	-9.41316
▁मो	-9.41347
भ	-9.41371
▁bunn	-9.41398
पा	-9.41456
nnu	-9.41477
▁badal	-9.41539
▁চ	-9.4154
▁ara	-9.41605
ᱭᱟ	-9.41606
▁shay	-9.41609
▁aasan	-9.41617
▁karna	-9.41642
ॉ	-9.41693
▁taraf	-9.41722
ும்	-9.41813
▁saun	-9.41896
▁ஆ	-9.41964
ਗ	-9.41969
▁ham	-9.41983
▁bho	-9.41985
ल्या	-9.42023
▁jinn	-9.42079
gan	-9.42142
ള	-9.42144
टा	-9.42146
▁bai	-9.42185
మ	-9.42198
▁shi	-9.42236
ੈ	-9.42243
▁gayee	-9.42311
tana	-9.42329
ৈ	-9.42377
ছ	-9.42407
▁گ	-9.42413
hat	-9.42424
গা	-9.42515
ut	-9.42564
▁mao	-9.42585
ੂ	-9.42634
ngal	-9.42702
દ	-9.42703
▁कु	-9.42745
▁tamaam	-9.42836
ᱞᱤ	-9.42847
ائی	-9.42848
▁sarkar	-9.42964
▁gubun	-9.4298
પ	-9.4306
uri	-9.43126
▁ye	-9.43259
ৰি	-9.43288
▁sama	-9.43321
▁राज्य	-9.43351
اں	-9.43429
▁ਸੀ	-9.43462
▁leakin	-9.43473
khon	-9.43519
ସ	-9.43549
ल्	-9.43625
ந்த	-9.43833
▁heey	-9.43877
naini	-9.43964
ಟ	-9.44
ঙ	-9.44184
▁hikk	-9.44205
▁mai	-9.44244
▁pxk	-9.44262
ड़	-9.44266
▁oi	-9.44274
▁saathe	-9.44332
▁waalay	-9.444
wo	-9.44448
▁اکھ	-9.44453
▁lwgwse	-9.44463
ೂ	-9.44483
▁abb	-9.4453
▁lay	-9.44577
টো	-9.44621
ᱝ	-9.44646
pati	-9.44649
▁بن	-9.44692
تے	-9.447
kor	-9.44746
▁seva	-9.44799
▁son	-9.44813
▁ବି	-9.44922
ਜ਼	-9.44939
▁kiyo	-9.44939
▁korar	-9.44954
▁ip	-9.45103
ᱞᱟ	-9.45127
▁करने	-9.45169
▁mwn	-9.45245
anu	-9.45272
bh	-9.45347
▁گیا	-9.4542
▁soo	-9.45422
▁M	-9.45431
▁jaati	-9.45486
▁tou	-9.45491
kke	-9.45537
▁१९	-9.4554
▁likh	-9.45541
ా	-9.45549
▁vikas	-9.45571
ہِ	-9.45595
▁au	-9.45608
▁janhan	-9.45645
▁সা	-9.45657
▁sara	-9.4569
િ	-9.45756
iba	-9.45769
▁sab	-9.45772
▁क्षेत्र	-9.45825
▁dur	-9.45928
▁korisil	-9.45943
▁ᱢᱤᱫ	-9.46017
ത്ത	-9.46032
fo	-9.46087
▁tatha	-9.46233
▁gaw	-9.46309
jana	-9.46352
▁paas	-9.4637
▁ت	-9.46393
nta	-9.46411
ଙ୍କ	-9.46426
▁جس	-9.4649
▁congress	-9.46496
▁kon	-9.46516
▁तो	-9.46519
isi	-9.46558
▁पु	-9.46568
▁D	-9.46668
▁सो	-9.46673
▁ᱵᱟ	-9.46684
▁pradesh	-9.46709
ᱰ	-9.46746
▁mon	-9.46899
▁company	-9.46902
▁buli	-9.47012
▁van	-9.4703
zo	-9.47058
ଟି	-9.47098
▁ح	-9.47118
pari	-9.4712
chem	-9.47125
▁hwnna	-9.4723
રી	-9.47232
▁karya	-9.47236
▁23	-9.47368
▁jaari	-9.47378
पुर	-9.47401
▁bhaeko	-9.47449
▁ana	-9.47465
▁garna	-9.47479
▁un	-9.4754
ப்ப	-9.47549
▁କ	-9.47622
▁ક	-9.47728
ి	-9.47788
aal	-9.47801
ണ	-9.47836
tf	-9.47836
▁aasil	-9.47871
▁abhi	-9.47952
▁aase	-9.48003
dhya	-9.48021
ৰে	-9.48032
yw	-9.48041
▁hal	-9.48055
tik	-9.4811
▁hawaa	-9.48119
dhu	-9.48149
▁chhaa	-9.48212
डी	-9.48223
▁roga	-9.48305
nk	-9.48351
रो	-9.48474
rak	-9.48598
▁gee	-9.48617
ப	-9.48622
mai	-9.48634
▁eugfbu	-9.48677
▁luoif	-9.48679
▁سان	-9.48726
▁100	-9.48809
sing	-9.48859
▁പ്ര	-9.48888
▁লৈ	-9.48923
▁কৰি	-9.48968
▁diye	-9.49027
asa	-9.49066
jf	-9.49099
▁स्व	-9.49171
▁ق	-9.49189
▁ला	-9.4921
जी	-9.49219
▁hind	-9.49226
dho	-9.49262
nte	-9.49267
▁bya	-9.4928
▁l	-9.49295
▁ᱱᱚᱣᱟ	-9.49333
mani	-9.49441
▁school	-9.49481
▁তা	-9.49485
lim	-9.49504
ਜ	-9.49524
ଗ	-9.49606
▁کہا	-9.49712
را	-9.49811
▁ganvant	-9.49854
▁പ	-9.49871
▁kachh	-9.49894
▁এবং	-9.49903
▁ई	-9.49954
▁tum	-9.50039
য়া	-9.50052
▁dong	-9.50107
nath	-9.50161
ే	-9.50174
டி	-9.50298
▁તે	-9.50335
▁laabh	-9.50361
▁hara	-9.50405
▁karein	-9.50414
గ	-9.50485
▁matra	-9.50486
yude	-9.50508
ே	-9.50581
▁mf	-9.50607
▁উ	-9.5072
▁iyar	-9.50724
▁mutabiq	-9.50743
ா	-9.50759
ध	-9.50826
▁us	-9.50868
▁doctor	-9.50901
▁raajya	-9.50913
mar	-9.50954
▁त्या	-9.50978
▁tya	-9.50995
ach	-9.51055
pha	-9.51076
ಣ	-9.51092
ৎ	-9.51113
▁prothom	-9.51121
▁raha	-9.51133
khe	-9.51133
▁efñckr	-9.51137
▁ef	-9.51147
▁nada	-9.51214
mon	-9.51227
koi	-9.51263
▁G	-9.51266
ام	-9.51322
▁اپنے	-9.51376
▁जि	-9.51381
▁ம	-9.51401
desh	-9.51427
dor	-9.51467
मि	-9.51522
்	-9.51554
▁गु	-9.51604
ଣ	-9.51621
▁سر	-9.51632
▁hoan	-9.51641
▁paani	-9.51653
▁প্র	-9.51663
nti	-9.51675
vpo	-9.51676
స్	-9.51694
वे	-9.51779
▁bahut	-9.51789
▁sp	-9.51907
ছে	-9.51938
▁শ	-9.51961
00	-9.51986
ᱨᱮ	-9.52029
▁40	-9.52078
▁america	-9.52096
▁aey	-9.52106
▁sae	-9.52116
▁ಸ	-9.52217
▁chhey	-9.52236
▁nagar	-9.52302
ndu	-9.52429
▁എ	-9.52435
▁paar	-9.52449
ida	-9.52501
▁loka	-9.52502
ૂ	-9.52708
dda	-9.52714
تھ	-9.52795
▁etaa	-9.52803
▁بی	-9.52831
ache	-9.52833
▁એ	-9.52863
தி	-9.52865
▁ந	-9.52943
▁aag	-9.52975
▁چھوء	-9.52987
हरू	-9.53
ର୍	-9.53071
▁ସେ	-9.53086
ক্ষ	-9.53166
▁kaar	-9.53238
সি	-9.53251
ंड	-9.53273
▁sabb	-9.53274
▁الله	-9.53275
▁fgfxf	-9.53308
aanu	-9.53312
▁haiy	-9.53366
xi	-9.535
▁سی	-9.53504
▁gfbu	-9.53514
▁ఇ	-9.53569
▁सम	-9.53596
ura	-9.5364
▁گا	-9.53652
gf	-9.53687
▁lokh	-9.53706
ُ	-9.53731
দি	-9.53755
▁sonot	-9.53795
▁kama	-9.53829
ળ	-9.5385
eel	-9.53958
ulla	-9.53991
▁chez	-9.54065
▁mashkal	-9.54083
▁വ	-9.5414
yah	-9.54193
▁വി	-9.54229
ন্দ	-9.54249
ze	-9.54286
▁saglyaan	-9.54365
▁honay	-9.54375
ena	-9.54377
tiya	-9.54417
▁laakh	-9.54422
णी	-9.54601
ಹ	-9.54622
ಪ	-9.54677
char	-9.54744
▁ayee	-9.54764
▁maen	-9.54806
▁koribo	-9.54835
▁af	-9.54856
ਤਾ	-9.54935
▁বাবে	-9.54951
▁nundi	-9.54962
يءَ	-9.54963
ᱯ	-9.55064
स्त	-9.55069
▁nim	-9.55071
karan	-9.55073
हि	-9.55104
त्र	-9.5513
▁य	-9.5519
క్	-9.55216
wat	-9.55256
▁nazar	-9.55325
pad	-9.55495
▁ବ	-9.55509
ᱳ	-9.55566
▁लोक	-9.55654
▁soa	-9.55658
ਰਾ	-9.55708
▁تک	-9.55725
lle	-9.55818
:	-9.56014
▁giaa	-9.56036
ط	-9.56092
▁لیے	-9.56208
▁hee	-9.56258
sti	-9.56259
गी	-9.56271
▁સ	-9.56301
▁27	-9.56344
▁ഇ	-9.56345
▁m	-9.56406
▁gwnang	-9.5642
▁F	-9.56449
▁gari	-9.56454
▁lknab	-9.56501
▁”	-9.56642
bhabe	-9.56648
yaan	-9.5672
ेन	-9.56854
ीय	-9.56875
▁26	-9.5699
ꯀꯤ	-9.57051
▁sai	-9.57059
த்	-9.57062
kaa	-9.57154
oa	-9.57174
ꯜ	-9.57212
thil	-9.5724
▁वर्ष	-9.57248
▁app	-9.57255
ᱨᱚ	-9.57294
▁मि	-9.57301
ায়	-9.57302
નું	-9.57303
bor	-9.57368
bara	-9.57372
kkum	-9.57399
ತಿ	-9.57417
one	-9.57422
▁dhu	-9.57482
chit	-9.57498
▁masi	-9.57506
ade	-9.57561
ಗಳನ್ನು	-9.57567
▁पि	-9.57612
▁ٿي	-9.57638
ththu	-9.57693
▁ప	-9.57709
▁gun	-9.5773
bal	-9.5775
▁thoka	-9.57756
டு	-9.57765
▁یا	-9.57774
duna	-9.57802
▁ಬ	-9.57838
▁far	-9.57976
hay	-9.5802
মি	-9.58087
▁bitanga	-9.58088
▁mara	-9.58108
▁hoow	-9.58115
ਲਾ	-9.58168
▁kotha	-9.58173
▁வி	-9.58203
▁teen	-9.58236
ᱣᱟ	-9.5837
▁E	-9.58413
▁फ	-9.58436
ichu	-9.5845
▁ಪ	-9.58485
dwngmwn	-9.58511
▁mwnse	-9.58519
▁logon	-9.58532
▁mil	-9.58561
ி	-9.58661
▁रा	-9.58693
▁खा	-9.58699
▁માટે	-9.58705
▁28	-9.58743
▁క	-9.58772
▁ಹ	-9.58792
▁kumar	-9.58813
sal	-9.58844
▁bala	-9.58931
▁has	-9.59008
hḷ	-9.5907
নে	-9.59117
▁+	-9.59171
▁banaa	-9.59174
ॅ	-9.59192
tal	-9.59197
▁thie	-9.59204
aar	-9.59223
▁karnaa	-9.59276
▁samiti	-9.59286
ય	-9.5935
kala	-9.59381
pak	-9.59467
ngi	-9.59472
▁laae	-9.59495
▁bol	-9.5955
▁vya	-9.59569
oloi	-9.59576
▁ᱥᱟ	-9.59579
gam	-9.59642
ḍf	-9.59646
▁kooda	-9.59652
▁behat	-9.59681
▁vfñolk	-9.59777
ச	-9.59801
ങ്ങൾ	-9.59809
▁sankhya	-9.59824
▁inhon	-9.59859
▁तर	-9.59877
▁চা	-9.59881
▁oka	-9.59884
▁પ	-9.59884
▁aj	-9.59982
▁bhane	-9.60055
▁थाखाय	-9.60116
▁bhaag	-9.60182
▁laagim	-9.60202
P	-9.60371
▁એક	-9.60417
llo	-9.60453
ତା	-9.60458
ाच्या	-9.60467
anni	-9.60471
ஸ்	-9.60522
atha	-9.60538
▁gho	-9.6054
মান	-9.60581
▁xi	-9.60609
▁بر	-9.60615
▁بعد	-9.60642
mp	-9.60643
▁pot	-9.60693
▁vaxab	-9.60726
सो	-9.60787
▁hindu	-9.60827
sw	-9.60841
ਂ	-9.60845
ણ	-9.60858
फोरा	-9.60878
ss	-9.60969
᱗	-9.61043
anti	-9.6108
তি	-9.61106
शा	-9.61133
ḍḷ	-9.61225
▁team	-9.61285
▁যে	-9.61304
vya	-9.61389
▁த	-9.61559
▁tas	-9.61565
ഹ	-9.61566
লৈ	-9.61577
▁karneh	-9.61597
ꯠ	-9.61603
lak	-9.61615
tham	-9.61667
▁হা	-9.61695
nagar	-9.6171
▁gayey	-9.61715
▁ᱜᱮ	-9.61734
जि	-9.61799
▁किया	-9.61815
▁hf	-9.61852
জি	-9.61867
▁hoye	-9.61925
▁dui	-9.62045
pal	-9.62071
▁kariba	-9.62115
▁zi	-9.62142
ند	-9.62149
▁or	-9.62158
▁yojana	-9.62183
اب	-9.62198
madhye	-9.62328
▁कन्नै	-9.62366
ೊ	-9.6242
pada	-9.6243
▁دو	-9.6243
▁سو	-9.62449
▁ekti	-9.62455
▁nirman	-9.62505
▁ڪ	-9.62554
ान	-9.62638
▁montri	-9.62734
acho	-9.62768
▁sur	-9.62773
▁vaale	-9.62797
▁ସ	-9.62844
▁kitaab	-9.62863
▁ram	-9.62951
ban	-9.63012
▁xong	-9.63056
▁dev	-9.63102
ગ	-9.63115
▁hoga	-9.63253
▁rao	-9.63281
ksha	-9.63325
bah	-9.6335
oor	-9.63353
▁प्रति	-9.63384
vara	-9.63387
▁shuru	-9.63402
ୋ	-9.63414
ᱲ	-9.63546
ाय	-9.6356
adu	-9.63593
▁ز	-9.63637
▁تتھ	-9.63678
▁lee	-9.63704
▁هن	-9.63704
▁ao	-9.63714
▁ಇ	-9.63721
ধ	-9.63904
sho	-9.63922
▁nas	-9.63967
▁taman	-9.64
▁lau	-9.64037
▁char	-9.64148
▁prayog	-9.64158
▁kaal	-9.64161
▁shareek	-9.6417
બ	-9.64183
▁war	-9.64189
▁nakk	-9.64209
diya	-9.64281
ড	-9.6435
▁hw	-9.64411
ാണ്	-9.64415
ೈ	-9.64423
ষ	-9.64427
▁guru	-9.64483
▁ન	-9.64594
▁ਇਹ	-9.64602
ver	-9.64683
▁viyo	-9.64686
ꯁ	-9.64714
ंत	-9.64775
▁paare	-9.64798
2	-9.64838
রে	-9.64843
tya	-9.64844
▁on	-9.64876
▁ਆ	-9.64923
▁ত	-9.64941
▁sunn	-9.65054
ikka	-9.65063
ിൽ	-9.65075
▁upo	-9.65077
kon	-9.65115
▁hoya	-9.65117
▁divas	-9.65126
बाय	-9.65183
ona	-9.65208
▁pal	-9.65239
▁نا	-9.65285
▁ਮ	-9.6529
jit	-9.65313
ହ	-9.65327
▁विकास	-9.65351
पी	-9.65377
vee	-9.65387
▁ساتھ	-9.65436
xo	-9.65449
nch	-9.65497
▁chin	-9.65563
▁chand	-9.65578
ட்ட	-9.65629
ফ	-9.65635
▁paras	-9.65646
ئي	-9.65691
▁दु	-9.6576
khan	-9.65833
ththil	-9.65919
▁at	-9.65933
▁মে	-9.65948
▁اسہ	-9.65968
ું	-9.65991
▁ମ	-9.66075
▁bob	-9.66141
▁enna	-9.66144
▁gaye	-9.66153
▁jadwng	-9.66187
bf	-9.66198
▁she	-9.66205
ktfñ	-9.66211
ିତ	-9.66224
api	-9.6627
اد	-9.66284
ନା	-9.66318
ிய	-9.66319
ಳ	-9.66338
▁ᱚ	-9.66384
फ	-9.66402
hra	-9.66443
▁jeevan	-9.66445
gwn	-9.66468
▁hoisil	-9.66487
ic	-9.66501
▁mata	-9.66551
shta	-9.66556
▁raaj	-9.66582
ly	-9.66631
avum	-9.66671
পা	-9.66675
ట	-9.66759
▁hazrat	-9.66789
तो	-9.66868
ଦ	-9.66889
vari	-9.66917
▁ਉਸ	-9.67208
▁islaam	-9.67257
ద	-9.67263
▁aave	-9.67266
ᱠᱚ	-9.67334
▁گژھہ	-9.67371
▁ৰ	-9.67383
▁nav	-9.6743
▁ਹ	-9.67484
प्र	-9.67486
mana	-9.67493
वी	-9.67543
▁உ	-9.67582
ട്ട	-9.67593
▁تھے	-9.67596
▁pratham	-9.67597
▁آمین	-9.67618
▁zo	-9.67619
avannu	-9.67694
▁hoti	-9.67697
▁raat	-9.67756
খি	-9.67778
▁pau	-9.6779
▁ನ	-9.67819
▁sthaan	-9.67837
▁khaas	-9.6784
▁بہ	-9.67845
ٽ	-9.67857
▁गा	-9.67979
tur	-9.67988
▁যা	-9.68006
▁jayw	-9.68106
▁സ	-9.6811
▁poo	-9.68126
para	-9.68139
▁هو	-9.68225
ash	-9.68247
ष्ट	-9.68292
▁sal	-9.68293
▁उपलब्ध	-9.68314
▁ಈ	-9.68369
zha	-9.6842
cu	-9.68436
લા	-9.68459
▁mala	-9.68466
▁huaa	-9.68519
kai	-9.68613
بہء	-9.68624
▁दिन	-9.68637
dra	-9.68701
liya	-9.68847
ಲು	-9.68908
ꯅꯤ	-9.68945
dhe	-9.69013
घ	-9.69054
ುವ	-9.69129
▁पनि	-9.69159
ശ	-9.69182
ꯄ	-9.69201
▁thi	-9.69207
▁path	-9.69349
उ	-9.69352
jya	-9.69396
▁oina	-9.69399
▁chala	-9.69402
▁hell	-9.69421
▁করে	-9.69445
ts	-9.69532
▁haasil	-9.69566
▁مجلسہ	-9.69602
▁چیانہ	-9.69603
▁हम	-9.69666
yalli	-9.6974
▁ہوئے	-9.69836
▁han	-9.69837
یہ	-9.69861
don	-9.69866
ನೆ	-9.69907
▁ਵੀ	-9.69986
▁tak	-9.69991
▁maj	-9.70028
▁huwa	-9.70047
یت	-9.70085
کر	-9.70128
▁yime	-9.70183
▁ପ୍ର	-9.7019
▁ਵਿਚ	-9.70228
▁sanstha	-9.7027
ରା	-9.70289
▁aarogya	-9.7029
▁khaa	-9.70342
▁எ	-9.70374
▁maad	-9.7039
mane	-9.70447
്യ	-9.70531
▁jag	-9.70535
▁apa	-9.70636
لا	-9.70636
▁shah	-9.70639
ள	-9.70699
▁jae	-9.70722
▁ਜ	-9.70765
▁teur	-9.7078
bho	-9.70823
▁خ	-9.70879
ਖ	-9.70897
▁gur	-9.70967
▁iu	-9.70989
▁karaan	-9.71092
ठ	-9.71109
▁काम	-9.71114
▁izaafe	-9.7112
णा	-9.71127
und	-9.71138
▁..	-9.71175
▁ਕਰ	-9.71179
ائ	-9.71202
▁shak	-9.7122
▁rehaa	-9.71221
▁مل	-9.71232
ath	-9.71235
▁ijazat	-9.71257
▁ଏହି	-9.71293
▁jey	-9.71343
ীয়	-9.71411
ೋ	-9.7142
ਹ	-9.71476
▁२	-9.71508
▁jonno	-9.71519
तः	-9.71524
▁mangan	-9.71614
رو	-9.7166
▁pramukh	-9.71672
iyil	-9.71886
ਦਾ	-9.71956
▁main	-9.7198
val	-9.7199
galalli	-9.71997
▁lagaa	-9.71997
کھ	-9.71999
▁ச	-9.72001
▁তেওঁ	-9.72043
▁sor	-9.72057
ெ	-9.72184
khiba	-9.72227
રા	-9.72284
ᱥᱟ	-9.72345
▁paanee	-9.7236
▁antaraacher	-9.72374
▁ᱢᱟ	-9.72381
▁সে	-9.72382
ચ	-9.72412
शी	-9.7245
uka	-9.7246
mda	-9.72461
िया	-9.7248
▁waa	-9.72582
▁duu	-9.72627
ئ	-9.72674
▁saate	-9.72693
gha	-9.72719
tak	-9.72727
▁adi	-9.72737
▁suru	-9.72766
▁kana	-9.72828
▁यस	-9.72837
▁31	-9.72868
▁mill	-9.72942
▁dekhi	-9.72982
▁keeti	-9.72997
ઓ	-9.72999
▁ہم	-9.73057
fx	-9.73082
▁roz	-9.73085
▁બ	-9.73118
▁ᱠᱟ	-9.73135
▁ਵ	-9.73147
▁रूप	-9.73167
യും	-9.73237
▁سال	-9.73276
ରି	-9.73304
ᱱᱤ	-9.73306
ira	-9.73308
ting	-9.73359
ణ	-9.73394
ٲ	-9.73414
▁మ	-9.73448
▁adhik	-9.7353
dari	-9.73542
▁મ	-9.73647
vad	-9.73885
▁rklai	-9.73913
▁ভ	-9.73973
ವನ್ನು	-9.74071
▁bandah	-9.74086
rḷ	-9.74093
▁chhos	-9.74118
یر	-9.74124
▁kyaaza	-9.74137
▁jha	-9.74151
▁aahet	-9.74171
ner	-9.74197
▁dakshin	-9.74198
onmot	-9.74244
▁mohammad	-9.74261
▁ak	-9.74416
▁kri	-9.74435
bk	-9.74489
▁zae	-9.74552
▁chhi	-9.74558
▁xei	-9.74575
▁भा	-9.74615
hara	-9.74646
▁2016	-9.74662
rit	-9.74844
▁2019	-9.74856
ார்	-9.74909
▁gwbang	-9.7492
▁manza	-9.74923
ಡಿ	-9.74924
pwrkwo	-9.74944
din	-9.75024
ائي	-9.75031
▁ira	-9.75033
▁bhaa	-9.75037
gg	-9.75058
▁hue	-9.75062
▁آهن	-9.75137
▁dwi	-9.75153
▁ror	-9.75174
▁tsae	-9.75177
मी	-9.75203
▁qu	-9.75227
डा	-9.75237
▁ہ	-9.75239
rf	-9.7524
▁हि	-9.75243
▁than	-9.75261
▁shree	-9.75298
ில்	-9.75355
▁sin	-9.75372
▁sat	-9.75375
▁ಪ್ರ	-9.75384
▁vyakti	-9.75401
ns	-9.75406
ുന്ന	-9.75487
ଟ	-9.75503
▁yiy	-9.75527
ये	-9.75531
▁pyeth	-9.75535
ষ্ট	-9.75541
▁ziyadah	-9.75549
▁ghara	-9.75569
meyi	-9.75574
▁samasya	-9.75578
▁karah	-9.75618
▁bahu	-9.75654
▁ته	-9.75689
avu	-9.75694
کی	-9.7574
▁dhar	-9.75782
▁কে	-9.75817
▁ok	-9.75828
▁ವಿ	-9.7585
▁ता	-9.75873
athu	-9.75962
غ	-9.75973
▁upayog	-9.75983
ᱠᱟ	-9.76047
க்கு	-9.76084
▁ravaa	-9.76086
▁29	-9.76113
loi	-9.76154
▁سا	-9.76211
ney	-9.7623
▁haah	-9.76242
yak	-9.76265
▁tra	-9.76333
▁nira	-9.76429
▁chal	-9.76436
▁ḍu	-9.76464
▁साथ	-9.76481
▁2017	-9.76485
▁aai	-9.76488
▁gatshen	-9.7652
bada	-9.76559
▁fñwk	-9.76565
▁2018	-9.76616
ರೆ	-9.76662
cḷ	-9.76694
▁সং	-9.76709
▁kada	-9.76715
▁endu	-9.76737
yas	-9.76752
hin	-9.76762
▁କରି	-9.76836
▁ven	-9.7684
▁ᱢᱮᱱᱟᱜᱼᱟ	-9.76856
ṣ	-9.76881
पि	-9.76927
▁t	-9.76946
▁saarni	-9.76949
▁hwnnanwi	-9.76969
▁hama	-9.77005
▁jeey	-9.77053
▁oau	-9.77057
ਿ	-9.77066
jee	-9.77096
cf	-9.77198
డ	-9.77206
▁paida	-9.77277
apa	-9.77379
▁kilometer	-9.77428
▁onu	-9.7745
▁haal	-9.77458
len	-9.77474
▁jaate	-9.77559
hon	-9.77567
▁मन	-9.77621
▁darr	-9.77659
▁d	-9.77676
▁band	-9.77682
ktf	-9.77795
▁ash	-9.77828
▁राज	-9.77859
▁وسلم	-9.77874
▁baneni	-9.77882
▁karnak	-9.77889
▁مو	-9.77891
ূ	-9.77922
▁pri	-9.77923
mee	-9.77946
▁peer	-9.77953
▁K	-9.78011
▁ले	-9.78018
പ	-9.78061
▁aaf	-9.78083
▁ḍk	-9.78085
▁hey	-9.78122
िका	-9.78201
▁eu	-9.78207
▁وقت	-9.78231
▁off	-9.78296
▁mangne	-9.7836
athil	-9.78361
निफ्राय	-9.78363
ᱧ	-9.78378
लें	-9.78392
achya	-9.78399
▁دیا	-9.78405
▁muthal	-9.7841
nya	-9.78416
▁meelan	-9.78421
ruva	-9.78435
unna	-9.78442
ḍ	-9.78467
▁fc	-9.7851
▁gor	-9.7852
▁rah	-9.78546
▁koi	-9.78571
C	-9.78572
yari	-9.78577
ᱡ	-9.78582
vf	-9.78641
▁pehley	-9.78681
▁mila	-9.78688
▁tevfi	-9.78695
ਬ	-9.78705
▁padh	-9.78726
▁उप	-9.78743
لي	-9.78748
▁छी	-9.78824
pwrni	-9.78888
▁undhi	-9.789
day	-9.7892
▁વિ	-9.78928
▁ਕ	-9.78932
പ്പ	-9.7895
चो	-9.78965
ோ	-9.79014
ist	-9.79033
▁N	-9.79033
ꯁꯤꯡ	-9.79033
▁सरकार	-9.79064
▁ತ	-9.79108
▁nik	-9.79111
ਥ	-9.79178
▁ᱚᱱᱟ	-9.79187
▁لئے	-9.79215
pp	-9.79236
▁hatee	-9.7927
▁yih	-9.79272
▁her	-9.79296
▁ह्या	-9.79301
▁از	-9.79334
▁mad	-9.79346
▁garne	-9.79366
▁mul	-9.79419
▁सन्	-9.79437
▁दो	-9.79444
▁ala	-9.7945
ux	-9.79458
९	-9.79518
▁vikaas	-9.7953
▁we	-9.79545
▁ऎ	-9.79581
ih	-9.79593
ow	-9.79609
bhar	-9.79627
ப்பு	-9.79636
ग्	-9.79653
aye	-9.79663
▁doo	-9.79665
ವಾಗಿ	-9.7968
తి	-9.79694
▁मान	-9.79708
▁कार्य	-9.79729
esh	-9.79744
dai	-9.79765
द्ध	-9.79792
▁hem	-9.7985
▁pira	-9.79899
ظ	-9.79902
▁ఈ	-9.79909
খন	-9.79942
था	-9.79953
▁వి	-9.8002
vaar	-9.80079
▁यह	-9.80183
▁sharoo	-9.80228
ਾਈ	-9.8024
▁طور	-9.8029
dana	-9.80328
ിയ	-9.80347
ent	-9.80352
▁rama	-9.80368
▁karen	-9.80381
▁pas	-9.80401
▁err	-9.80424
nja	-9.80456
ൂ	-9.80469
▁ਪ੍ਰ	-9.80565
కి	-9.80573
▁ᱵᱤ	-9.80604
▁tarr	-9.80611
▁uxf	-9.80647
ꯦ	-9.80681
▁masa	-9.80682
రా	-9.80703
▁रो	-9.80717
ത്തിൽ	-9.80721
▁با	-9.80731
▁“	-9.8074
᱐	-9.80769
▁sari	-9.80782
▁xom	-9.80822
▁60	-9.80833
T	-9.80887
I	-9.80901
▁college	-9.80912
▁aee	-9.80931
▁aara	-9.80983
बाट	-9.80995
وت	-9.8106
▁ᱛᱟᱦᱮᱸ	-9.81101
ୟ	-9.81102
yf	-9.81152
▁ବା	-9.81156
ତି	-9.81177
▁mha	-9.812
ੱ	-9.81232
▁saam	-9.81261
▁tih	-9.81271
يو	-9.81292
per	-9.81302
hai	-9.81305
▁হৈছে	-9.81313
▁ᱢᱮᱱᱟᱜ	-9.81345
ீ	-9.81363
▁aliyah	-9.81364
ਦੀ	-9.81434
daba	-9.81488
اس	-9.81526
८	-9.81538
▁ति	-9.81544
▁sw	-9.81569
▁मोन	-9.81584
▁oux	-9.81634
▁prakaar	-9.81638
▁sadasya	-9.81683
▁jal	-9.8169
▁vaar	-9.81748
▁vf	-9.81763
▁khan	-9.81771
mah	-9.81785
ଶ	-9.81792
sabh	-9.81826
উ	-9.81875
▁2020	-9.81879
▁inththa	-9.81905
▁shar	-9.81912
▁tema	-9.81913
▁ida	-9.81927
▁unnaayi	-9.8199
ਲੀ	-9.81995
▁नहीं	-9.82003
▁raa	-9.8202
റ്റ	-9.82047
▁घर	-9.82098
asi	-9.82118
▁পু	-9.82132
जन	-9.82158
യിൽ	-9.82188
ide	-9.82209
▁تر	-9.82211
জন	-9.82212
vani	-9.82215
াৰ	-9.82293
▁gfx	-9.82305
ାଇ	-9.82313
▁euxf	-9.82323
yannu	-9.8237
ੀਆਂ	-9.8238
▁subung	-9.82384
دہ	-9.82393
yog	-9.82416
یل	-9.82445
S	-9.82468
▁देश	-9.82571
▁yass	-9.82581
▁vidya	-9.82582
avi	-9.826
▁sthan	-9.82668
▁enn	-9.8273
▁jas	-9.8273
▁2000	-9.82753
▁shaher	-9.82754
maana	-9.8278
▁aham	-9.82789
min	-9.82817
▁مان	-9.82843
hal	-9.82914
▁lakh	-9.82936
▁mama	-9.82944
ଜ	-9.82945
શ	-9.83066
▁kat	-9.83089
▁graam	-9.83105
ث	-9.83148
ley	-9.83225
▁महा	-9.83255
dara	-9.83285
ppi	-9.83286
▁ച	-9.83421
ंद	-9.83442
inte	-9.83447
▁fh	-9.83541
▁کوئی	-9.83547
pana	-9.83579
த்தில்	-9.83657
▁kali	-9.8369
मान	-9.83707
▁paish	-9.83717
▁varsha	-9.83719
த்து	-9.83723
sanga	-9.83744
▁tah	-9.83755
▁২	-9.83784
▁bele	-9.83799
ರಾ	-9.83843
▁patra	-9.83886
▁sad	-9.83923
▁ehaa	-9.8393
hen	-9.83946
▁hfmfḍh	-9.83981
▁kun	-9.83996
D	-9.83998
sor	-9.84083
▁ప్ర	-9.84094
yin	-9.84123
▁کرتے	-9.84168
▁লা	-9.84172
▁gael	-9.84186
ಲಿ	-9.84209
யில்	-9.84247
छ	-9.84253
▁mukh	-9.84283
نس	-9.84364
loo	-9.84371
▁વ	-9.84431
▁اي	-9.84532
▁ফ	-9.84598
▁ഒരു	-9.84604
E	-9.84635
▁asay	-9.84673
फोरखौ	-9.84681
▁خان	-9.84687
িয়া	-9.84766
ை	-9.84778
▁sen	-9.84804
▁ḍa	-9.84851
▁amar	-9.84871
▁बु	-9.84893
ற்ற	-9.84894
ong	-9.85025
▁ത	-9.85061
▁dhara	-9.85115
▁cricket	-9.85124
गोन	-9.85175
▁tad	-9.85205
ദ	-9.85245
▁५	-9.85265
▁it	-9.85275
▁O	-9.85282
▁rahi	-9.85318
▁2015	-9.85367
▁tau	-9.85384
▁नाम	-9.8539
pwra	-9.85408
▁ਬ	-9.85444
▁উপ	-9.85471
▁शा	-9.85483
A	-9.85524
kali	-9.85585
saa	-9.85643
nat	-9.85644
gṭh	-9.85678
▁नै	-9.85688
▁asti	-9.85728
▁यो	-9.8573
न्त	-9.85775
ksh	-9.85778
▁shakti	-9.85778
▁time	-9.85787
▁x	-9.85817
▁mari	-9.85868
▁उस	-9.85915
xe	-9.85929
▁qarr	-9.85963
ᱥᱤ	-9.86031
niya	-9.86046
▁స	-9.86069
▁asee	-9.86105
ाची	-9.86116
▁پاکستان	-9.86119
▁જે	-9.86159
▁जाता	-9.862
▁waari	-9.86253
▁karvaamaa	-9.8629
▁kaan	-9.86306
ર્	-9.86329
rang	-9.86337
▁ondu	-9.86352
ia	-9.86356
ਆਂ	-9.86366
ywi	-9.86368
dalli	-9.86406
▁2014	-9.86425
▁nadi	-9.86434
vaan	-9.8645
mwn	-9.86545
▁gp	-9.86588
ḍk	-9.86642
▁ᱦᱟ	-9.86741
▁जाय	-9.86827
ᱛᱟ	-9.86873
களை	-9.86878
▁eva	-9.86968
▁adhi	-9.87058
pro	-9.87085
▁aivam	-9.87104
▁ess	-9.87117
galai	-9.87185
▁car	-9.87228
▁rug	-9.87236
▁amal	-9.87242
▁unao	-9.87277
▁asha	-9.87278
ren	-9.87281
far	-9.87301
▁mool	-9.87303
▁tala	-9.87311
▁pinn	-9.87314
ൈ	-9.87328
▁kita	-9.87382
▁सह	-9.87387
ꯅꯥ	-9.87425
ക്	-9.87454
নবা	-9.87513
ਦੇ	-9.87559
▁ڪري	-9.87564
ᱟ	-9.87582
qi	-9.87614
▁પ્ર	-9.87671
▁یمن	-9.8768
aaga	-9.87778
थाय	-9.878
▁ste	-9.87803
त्व	-9.87807
াই	-9.87813
শিং	-9.87843
▁جب	-9.87861
▁din	-9.87877
বে	-9.87888
▁dinwi	-9.87891
▁chho	-9.87928
কৈ	-9.87953
▁गै	-9.87955
aayi	-9.87967
ꯒ	-9.87969
▁ᱯᱟ	-9.88014
shu	-9.88021
ବା	-9.88031
வு	-9.88043
▁tor	-9.88089
▁antar	-9.88117
ৰী	-9.88122
amgaa	-9.88129
▁kut	-9.8819
সু	-9.88219
▁थियो	-9.88242
amlo	-9.88282
▁muslim	-9.88301
०	-9.88324
नायनि	-9.88375
▁gisaa	-9.88383
riba	-9.88405
▁gan	-9.8843
▁jane	-9.8843
▁karay	-9.88442
▁rupma	-9.88459
વી	-9.88468
▁᱑᱙	-9.8847
▁बाद	-9.88502
kee	-9.8853
त्त	-9.88535
▁nem	-9.88536
▁بات	-9.88536
rk	-9.88583
▁अस	-9.88589
▁জ	-9.88607
unda	-9.88616
▁dan	-9.88627
▁sah	-9.88638
▁qf	-9.88665
20	-9.8867
gon	-9.88698
▁chitra	-9.88728
స	-9.88739
ئی	-9.88742
▁saba	-9.88786
ghat	-9.88807
ଲା	-9.88861
▁meh	-9.88863
ler	-9.88875
▁tab	-9.88887
▁छल	-9.88901
▁india	-9.88963
▁nat	-9.89039
dhar	-9.89051
ూ	-9.89129
gor	-9.89144
M	-9.89164
▁purush	-9.892
▁به	-9.89231
▁ḍfd	-9.89299
▁lan	-9.89302
▁সু	-9.89358
ऽ	-9.89358
padi	-9.89359
▁dra	-9.89404
thee	-9.8941
ੌ	-9.8941
ाः	-9.8941
ਨਾ	-9.89435
bat	-9.89483
ন্ত	-9.89537
ٹھ	-9.89596
▁taba	-9.89793
▁report	-9.89815
یا	-9.89845
▁ये	-9.89881
shak	-9.89893
▁hun	-9.8996
ith	-9.9
laba	-9.9002
▁gareko	-9.90033
1	-9.90042
ವು	-9.90095
▁march	-9.90135
vṭh	-9.90136
▁awa	-9.90177
▁assam	-9.90186
▁pur	-9.90189
್ಯಾ	-9.90211
▁party	-9.9026
▁மற்றும்	-9.90345
ाक	-9.90377
▁வ	-9.90405
▁aea	-9.90412
▁xf	-9.90458
ಜ	-9.90479
▁सर्व	-9.90492
▁ஒரு	-9.90506
▁ه	-9.9054
▁kh	-9.90564
اف	-9.90574
▁hoyee	-9.90661
▁nar	-9.90663
▁mor	-9.90669
nder	-9.90735
ಯಲ್ಲಿ	-9.90759
गिरि	-9.90778
തി	-9.90839
▁vishesh	-9.90849
af	-9.90868
▁dhan	-9.90879
vas	-9.90956
மை	-9.90997
▁ada	-9.91036
▁karo	-9.91037
फा	-9.91057
્	-9.91087
দের	-9.91127
▁tal	-9.91132
yaanu	-9.91172
▁सान	-9.9128
ڑ	-9.91286
ذ	-9.91312
▁moh	-9.9133
▁sindas	-9.91342
ᱟᱜ	-9.91384
▁inhan	-9.91469
acha	-9.91483
▁tey	-9.91493
vala	-9.91518
▁गया	-9.91531
७	-9.91569
▁raijw	-9.91585
▁aal	-9.9159
▁anusar	-9.91597
ੁ	-9.91617
ৰণ	-9.91628
▁khud	-9.91638
वार	-9.91672
▁rahey	-9.91681
ാൻ	-9.91681
టి	-9.91693
▁mel	-9.91728
▁taur	-9.91733
ding	-9.91743
▁sonor	-9.9176
▁মি	-9.91782
▁tem	-9.91789
▁ਕਰਨ	-9.91792
▁rahe	-9.91801
क्	-9.91814
▁ik	-9.91855
nku	-9.91857
▁deha	-9.9188
nthu	-9.91881
bagi	-9.91881
▁tye	-9.91888
ᱢᱟ	-9.91906
રે	-9.91927
▁کم	-9.91929
▁bhaga	-9.91938
ᱚᱜ	-9.91942
▁تھی	-9.91994
চা	-9.91997
thiya	-9.92044
ण्ड	-9.92048
see	-9.92081
▁اپنی	-9.92108
akke	-9.92156
▁sri	-9.92173
vin	-9.92204
▁ur	-9.92212
हो	-9.92237
ाइ	-9.92259
▁khood	-9.92329
than	-9.92371
O	-9.92386
▁hisape	-9.92395
यै	-9.92422
▁ਨ	-9.9244
▁vas	-9.92443
▁lokan	-9.92538
ᱴᱤ	-9.92559
ক্ত	-9.92597
લી	-9.92604
▁हर	-9.9262
▁দি	-9.92627
▁سب	-9.92705
▁npbpi	-9.92719
▁per	-9.92727
▁hor	-9.92744
▁ᱥᱚ	-9.92749
▁mag	-9.92815
▁ଏକ	-9.92828
ਨੀ	-9.92833
ಿಸ	-9.92888
▁keliye	-9.92898
▁athi	-9.92903
হা	-9.92922
vam	-9.92924
▁lananwi	-9.92924
sathi	-9.92945
wor	-9.92971
▁lp	-9.92978
▁thaake	-9.93141
▁ᱥᱮ	-9.93174
▁ژ	-9.932
ᱲᱟ	-9.93228
▁પણ	-9.9326
▁haagoo	-9.93334
▁samajh	-9.93338
▁shahar	-9.9334
ਤੀ	-9.93351
▁যায়	-9.93411
▁थानाय	-9.93431
▁ii	-9.93457
▁saahib	-9.93459
▁પર	-9.93461
झ	-9.93486
▁atha	-9.9351
▁कारण	-9.93527
ers	-9.93535
sara	-9.93575
ᱨᱩ	-9.93608
డి	-9.9361
aq	-9.93627
▁lfṅ	-9.93631
mukh	-9.93636
uli	-9.93679
▁corren	-9.93694
▁খ	-9.93723
▁sarva	-9.93731
▁loi	-9.93732
▁اب	-9.93741
▁hou	-9.93742
▁madad	-9.93771
chea	-9.93785
▁w	-9.938
▁mumbai	-9.93811
▁bftai	-9.93832
▁sarf	-9.93833
ٹر	-9.93857
jar	-9.93886
vannu	-9.93965
▁dilli	-9.93998
ടി	-9.94066
▁sala	-9.94067
▁aada	-9.94086
▁حل	-9.9409
▁kalam	-9.94138
sht	-9.9415
▁yahaan	-9.94175
टि	-9.94181
▁lock	-9.94188
▁yam	-9.94193
று	-9.94194
ार	-9.94238
▁ᱥᱤ	-9.94297
نہٕ	-9.94363
▁vastu	-9.94397
chh	-9.94434
त्य	-9.94438
▁donon	-9.94525
▁thaee	-9.94586
ସ୍	-9.94629
दोंमोन	-9.94658
ਚ	-9.94662
▁बो	-9.94682
▁shee	-9.94699
▁kaala	-9.9474
ola	-9.94747
▁tii	-9.94828
▁তিনি	-9.94848
▁کسی	-9.94892
▁karoon	-9.94896
▁سن	-9.94938
बि	-9.94945
▁ue	-9.94962
▁ᱦᱚᱸ	-9.94975
▁john	-9.95004
stu	-9.95028
▁zindagi	-9.95072
ᱩ	-9.95078
kalil	-9.95109
cher	-9.95184
ꯃ	-9.95204
ಕ್ಕೆ	-9.95239
▁muk	-9.95256
▁hari	-9.95261
▁ଏବଂ	-9.95265
xu	-9.95268
▁گی	-9.95283
▁هڪ	-9.95288
▁বে	-9.95319
▁ما	-9.95385
▁kash	-9.95406
▁aapne	-9.95449
▁ran	-9.9545
▁thamam	-9.95483
zah	-9.95511
ᱛᱤ	-9.95561
▁pray	-9.95572
▁huna	-9.95585
▁magar	-9.95591
▁تم	-9.95597
▁khalaaf	-9.9561
ank	-9.95613
▁mpt	-9.95695
bad	-9.95718
ண	-9.95779
iy	-9.95848
chal	-9.95854
ಟ್	-9.95887
▁khara	-9.95902
bon	-9.95931
wari	-9.95949
▁adhika	-9.95984
▁dharma	-9.96014
tion	-9.96074
ṭf	-9.96084
▁दर	-9.96102
▁sas	-9.96119
▁వ	-9.96128
▁gaam	-9.96185
ட்	-9.96199
▁bah	-9.96257
▁janm	-9.96265
▁مر	-9.96265
▁mak	-9.96271
▁star	-9.96286
▁eba	-9.96321
▁ce	-9.96356
▁rog	-9.96362
دی	-9.96365
▁वे	-9.96369
ᱯᱟ	-9.9638
▁ras	-9.96425
▁ᱱᱚᱶᱟ	-9.96429
▁लाग	-9.96498
ക്ഷ	-9.96578
avagi	-9.96606
xk	-9.96634
▁bf	-9.96648
▁सी	-9.96652
bhag	-9.96698
ది	-9.96722
दार	-9.96746
haruko	-9.96747
জা	-9.96749
▁sap	-9.96758
ੜ	-9.96761
يل	-9.96764
▁ଏ	-9.9687
▁thak	-9.9687
▁guna	-9.96878
▁कम	-9.96882
▁लागि	-9.96907
boloi	-9.96916
ncha	-9.96931
ᱯᱩᱨ	-9.96932
ഷ	-9.96963
ٹی	-9.96966
▁unhan	-9.96972
sah	-9.96984
▁अनु	-9.97005
avar	-9.97009
▁maru	-9.97092
▁पूर्व	-9.97124
િત	-9.97129
▁ati	-9.97137
च्छ	-9.97149
▁থেকে	-9.97186
haar	-9.97292
dwara	-9.97307
▁kaen	-9.97345
ীয়া	-9.97361
▁tayaar	-9.97401
▁चा	-9.97409
▁sarkari	-9.97466
▁pachhi	-9.97472
▁chadd	-9.97484
▁paak	-9.97485
ంగా	-9.97488
ṭk	-9.97493
▁bharatiya	-9.97496
હ	-9.97552
ila	-9.97585
▁طرح	-9.97652
മായ	-9.97654
▁khat	-9.97679
▁rashtra	-9.97688
ओं	-9.97716
▁hote	-9.97723
▁ପାଇଁ	-9.97738
▁bhe	-9.9774
▁test	-9.97783
sai	-9.97807
▁gajf	-9.97825
ੰ	-9.97867
kri	-9.97883
▁tham	-9.97892
bla	-9.97907
ె	-9.97922
yaat	-9.97951
▁hunda	-9.97955
ವಾ	-9.97957
तात	-9.97993
nir	-9.98045
ththin	-9.98058
সা	-9.98072
يا	-9.98104
▁kele	-9.98106
▁hazar	-9.98151
▁huee	-9.98155
रण	-9.98178
▁sik	-9.98182
mbi	-9.98198
▁amasun	-9.98212
xomuh	-9.98219
▁av	-9.983
▁poe	-9.98306
▁محمد	-9.98319
ph	-9.98323
▁bund	-9.98379
▁kw	-9.98402
ich	-9.98404
▁غ	-9.9842
▁maya	-9.98538
வை	-9.98601
▁natai	-9.98615
دار	-9.98654
▁hat	-9.98667
▁aiss	-9.98717
ez	-9.98719
▁laiba	-9.98746
▁jilaa	-9.98764
▁१०	-9.98788
િક	-9.98798
▁mantri	-9.98804
▁पे	-9.98807
mil	-9.98853
ukal	-9.98875
▁కా	-9.98927
▁hindi	-9.98929
icha	-9.98956
▁korise	-9.98978
णे	-9.98985
▁gahai	-9.99006
▁gele	-9.99037
▁jaay	-9.99039
▁haba	-9.99046
ரு	-9.99048
▁अपने	-9.99071
▁prakriya	-9.99101
▁रे	-9.99103
▁deva	-9.99119
▁ekhon	-9.99137
xon	-9.99202
ras	-9.99237
▁nepal	-9.99239
sthan	-9.99251
▁kola	-9.99272
▁gra	-9.99284
▁نام	-9.99307
رہ	-9.99343
▁utha	-9.99392
vil	-9.99416
▁W	-9.99428
ഗ	-9.99462
▁heba	-9.9948
▁shamil	-9.99485
▁لا	-9.99507
اہ	-9.99515
▁adhikari	-9.99517
▁ghor	-9.99532
രി	-9.99551
▁nan	-9.99595
▁ulla	-9.99644
▁ਜਾ	-9.99682
eshwar	-9.99738
▁अन्य	-9.99745
ᱵ	-9.99758
▁भाग	-9.99857
▁yaad	-9.99878
▁doraan	-9.99893
ங்க	-9.99917
▁mptpc	-9.9995
sina	-9.99962
ڙ	-9.99965
▁mau	-9.99994
khyo	-10.0001
▁হৈ	-10.0001
▁aayee	-10.0005
▁badha	-10.0005
পি	-10.0007
▁করা	-10.0007
லை	-10.0008
sak	-10.0012
▁lael	-10.0014
▁shaa	-10.0017
▁चि	-10.0018
६	-10.0022
ङ्ग	-10.0028
▁lad	-10.0028
ಾಗ	-10.003
ling	-10.003
anka	-10.003
▁athawa	-10.0031
ip	-10.0036
▁tyot	-10.0036
ber	-10.0037
▁ina	-10.0038
▁kujh	-10.004
▁aata	-10.0041
▁gram	-10.0045
▁karana	-10.0047
▁’	-10.005
oma	-10.0051
▁jaba	-10.0055
▁35	-10.0055
ିକ	-10.0056
lor	-10.0061
హ	-10.0062
▁mani	-10.0063
▁bfmuḍhr	-10.0064
▁aka	-10.0065
स्ट	-10.0067
▁थि	-10.0073
ꯖ	-10.0073
▁alee	-10.0078
వా	-10.0083
wah	-10.0086
ଲି	-10.009
ಸಿ	-10.0096
▁ಎ	-10.0096
ᱫᱟ	-10.0103
▁raheko	-10.0108
iyal	-10.0112
▁ruu	-10.0112
ster	-10.0119
▁nong	-10.0122
▁nama	-10.0123
▁mwnnai	-10.0126
ᱵᱟ	-10.0129
▁nikal	-10.013
▁chat	-10.013
ై	-10.0133
▁dhooram	-10.0134
यर	-10.0134
▁qee	-10.0135
▁shaah	-10.0138
▁দ	-10.0141
ವಿ	-10.0147
▁હ	-10.0148
▁hora	-10.0157
ಧ	-10.0159
लाय	-10.016
▁इक	-10.0161
yata	-10.0161
▁karan	-10.0161
▁sthit	-10.0165
ట్	-10.0169
▁എന്ന	-10.0169
▁vaha	-10.0169
▁کن	-10.017
▁اگر	-10.0176
▁hazaar	-10.0179
▁কো	-10.0181
▁tat	-10.0182
▁baat	-10.0191
ণ্ড	-10.0191
▁graamam	-10.0199
୍	-10.0204
᱑	-10.0211
▁جائے	-10.0215
▁روا	-10.0217
েই	-10.0223
स्थ	-10.0226
▁aab	-10.0231
یم	-10.0235
न्न	-10.0247
▁rashtriya	-10.0247
jai	-10.0255
▁آیا	-10.0261
▁ફ	-10.0262
▁000	-10.0263
▁ਕੀਤਾ	-10.0266
▁brahma	-10.0273
ग्रा	-10.0274
▁इं	-10.0279
tic	-10.0279
ᱦ	-10.0282
bani	-10.0289
गत	-10.0298
ਫ	-10.03
ரா	-10.03
▁karvaa	-10.0301
▁2021	-10.0302
▁pod	-10.0304
ഴ	-10.0304
सु	-10.0309
లా	-10.031
▁mus	-10.031
ਇ	-10.0311
ದು	-10.0314
▁ਹੋ	-10.0322
▁sase	-10.0323
▁kahee	-10.0327
▁পৰি	-10.0327
▁jug	-10.0328
వు	-10.0329
କ୍ଷ	-10.0329
▁hau	-10.0329
▁गाव	-10.033
നി	-10.0332
▁रि	-10.0334
▁lae	-10.0339
ꯔꯤ	-10.0339
▁गुबुन	-10.0341
از	-10.035
pon	-10.0351
▁samaj	-10.0353
᱙	-10.0354
ിച്ച	-10.0356
kx	-10.036
▁इति	-10.036
▁ꯑꯃꯅꯤ	-10.0362
aran	-10.0364
heen	-10.0364
shah	-10.0368
yem	-10.037
mal	-10.0375
▁maah	-10.0381
لو	-10.0388
▁অসি	-10.039
ikal	-10.039
▁आव	-10.039
ᱡᱽ	-10.0391
▁কি	-10.0395
▁aavela	-10.0401
▁caṭfd	-10.0402
▁parantu	-10.0407
thaa	-10.041
▁mem	-10.0413
▁رہے	-10.0413
ृ	-10.0415
▁tana	-10.0419
ખ	-10.042
▁samaya	-10.042
▁ड	-10.0422
▁kiye	-10.0422
తో	-10.0424
▁parey	-10.0424
▁ਫ	-10.0425
oj	-10.0427
▁paanch	-10.0431
▁থা	-10.0433
देश	-10.0441
▁ਵਿ	-10.0441
▁kol	-10.0442
sala	-10.0443
▁ivar	-10.0444
▁chee	-10.0445
▁paal	-10.0446
aayirunnu	-10.0447
▁deeaan	-10.0448
▁सक	-10.0449
gya	-10.045
ung	-10.0451
eek	-10.0454
ত্ত	-10.0455
▁bharata	-10.0456
ꯏ	-10.046
বু	-10.046
kot	-10.0461
ास	-10.0466
স্ত	-10.0466
▁2013	-10.0467
▁ਤ	-10.0467
ଖ	-10.0468
ನಿ	-10.047
வி	-10.0471
फोरनि	-10.0476
दर	-10.0478
hari	-10.0479
▁wazeer	-10.0481
ththai	-10.0482
▁mw	-10.0485
᱔	-10.0488
ાય	-10.0489
ahi	-10.0493
ଷ୍ଟ	-10.0495
▁bam	-10.0496
श्	-10.0497
ার	-10.0498
২	-10.0502
▁kunu	-10.0505
▁hospital	-10.0505
R	-10.0511
▁puwa	-10.0511
dok	-10.0513
sthit	-10.0515
▁२०	-10.052
ید	-10.0521
▁اتھ	-10.0522
▁समय	-10.0526
▁leey	-10.0529
▁asigi	-10.0534
▁ᱩᱱᱤ	-10.0535
ନ୍	-10.0536
▁mrityu	-10.0537
્ય	-10.0545
৯	-10.0545
लां	-10.0545
patra	-10.0545
లి	-10.0547
ꯇ	-10.0554
▁ઉ	-10.0559
▁والے	-10.0561
ಡ್	-10.0564
kiya	-10.0569
▁bak	-10.0569
land	-10.057
्ने	-10.0571
▁pun	-10.0572
▁बन	-10.0575
▁kuchh	-10.0576
▁janai	-10.0583
▁artha	-10.0583
▁praapt	-10.0586
thok	-10.0589
▁मह	-10.0591
sit	-10.0594
nor	-10.0597
eed	-10.0597
▁dis	-10.0598
യുടെ	-10.06
▁heay	-10.0602
▁api	-10.0602
▁पी	-10.0603
▁el	-10.0605
▁ᱩ	-10.0605
swa	-10.0609
▁लोगोसे	-10.0615
▁em	-10.0619
▁muh	-10.0624
▁लि	-10.0628
▁university	-10.0629
▁karu	-10.0631
▁corona	-10.0632
ria	-10.0635
ddha	-10.0638
raba	-10.0638
▁mukhtalif	-10.0639
waan	-10.064
▁rup	-10.0641
▁bhara	-10.0641
▁anek	-10.0647
▁uth	-10.0651
kl	-10.0653
▁aneka	-10.0654
▁भने	-10.0656
ieko	-10.0663
▁haar	-10.0663
▁bada	-10.0665
▁qasm	-10.0666
▁pahunch	-10.0667
up	-10.0668
aaya	-10.0668
rum	-10.0669
▁ट	-10.0669
ota	-10.0673
કા	-10.0673
▁unn	-10.068
▁korte	-10.068
▁jiu	-10.0681
▁छन्	-10.0683
▁سنڌ	-10.0684
▁karey	-10.0685
▁સં	-10.0686
▁sambandh	-10.0686
क्स	-10.0689
▁dinn	-10.069
▁wajah	-10.069
tto	-10.0691
non	-10.0691
iva	-10.0692
▁moo	-10.0693
▁panhenji	-10.0696
▁لیکن	-10.0702
▁aaga	-10.0705
▁ڈ	-10.0705
▁आय	-10.0706
▁diya	-10.0707
بر	-10.0709
▁देख	-10.0709
▁karithile	-10.071
ਕਾਰ	-10.071
hir	-10.071
▁ia	-10.0716
ikaran	-10.0718
vum	-10.072
▁फा	-10.0721
▁ditta	-10.0724
▁ing	-10.0729
yara	-10.0738
▁bra	-10.0741
▁kumm	-10.0743
▁ghur	-10.0747
▁ہر	-10.0748
ियों	-10.0748
▁शि	-10.0749
▁ਜੋ	-10.075
▁mash	-10.0752
▁pae	-10.0754
▁भएको	-10.0755
athe	-10.0759
zh	-10.0762
▁vaendum	-10.0762
▁᱒	-10.0763
5	-10.0764
▁hayana	-10.0766
ଡ	-10.0766
▁2012	-10.0768
▁समाज	-10.077
thile	-10.0771
ತ್	-10.0771
డు	-10.0772
▁tyaa	-10.0774
▁কৰিছিল	-10.0774
্র	-10.0776
▁asida	-10.078
▁عليه	-10.078
▁waali	-10.078
▁khabar	-10.0781
কি	-10.0782
▁pisot	-10.0782
gad	-10.0782
ங்கள்	-10.0785
▁hobey	-10.0786
▁پھر	-10.0788
▁praman	-10.0788
▁haath	-10.0793
থ	-10.0794
▁زیادہ	-10.0796
▁तु	-10.0799
▁ନ	-10.0799
nchi	-10.08
ਲੇ	-10.0804
▁hataa	-10.0804
جي	-10.0804
▁आं	-10.0806
▁bata	-10.0807
᱘	-10.0808
lat	-10.0809
gai	-10.0812
▁परि	-10.0813
▁aba	-10.082
▁bibhinno	-10.082
▁kap	-10.0821
മാ	-10.0821
▁jaya	-10.0822
▁arth	-10.0823
khat	-10.0825
اع	-10.0825
▁apani	-10.0827
▁koriboloi	-10.0829
▁ఎ	-10.0835
▁cf	-10.0841
▁మీ	-10.0843
▁dor	-10.0845
एं	-10.0846
▁thaay	-10.0847
▁tama	-10.0857
▁loag	-10.0857
▁भर	-10.0866
▁unle	-10.0867
▁reh	-10.0876
▁ᱥᱮᱨᱢᱟ	-10.0877
nde	-10.0882
રો	-10.0882
fj	-10.0883
એ	-10.0885
▁saale	-10.0894
ity	-10.0894
oli	-10.0903
yor	-10.0909
▁ഉ	-10.0909
uda	-10.0909
ood	-10.0913
▁गर्न	-10.0914
▁एह्	-10.0914
rem	-10.0915
▁१	-10.0915
ଛି	-10.0917
rodh	-10.0918
▁vadhu	-10.0921
ᱵᱽ	-10.0922
chen	-10.0923
oh	-10.0925
▁गेल	-10.0927
▁avar	-10.0927
▁patha	-10.093
▁گے	-10.0932
anchi	-10.0933
▁jaanda	-10.0934
▁kura	-10.0934
ङ	-10.0936
dal	-10.094
esa	-10.0941
▁hala	-10.0942
কী	-10.0943
لى	-10.0945
▁hwnai	-10.0948
ven	-10.095
▁eugf	-10.095
▁baha	-10.0951
रु	-10.0952
ీ	-10.0952
ave	-10.0953
▁आर	-10.0956
▁महिला	-10.0959
xor	-10.0959
▁ᱡᱚ	-10.096
▁కి	-10.0961
▁খা	-10.0961
▁সি	-10.0966
▁मिल	-10.0966
▁baj	-10.0969
▁bohu	-10.098
जे	-10.0982
نہ	-10.0982
▁ਜਾਂ	-10.0984
▁ᱞᱮᱠᱟᱛᱮ	-10.0986
▁fu	-10.0988
▁vitt	-10.0988
por	-10.099
▁mariyu	-10.099
▁द्वारा	-10.0992
▁ਰ	-10.0992
daar	-10.0996
raan	-10.1
▁astai	-10.1002
▁gfñik	-10.1007
▁eugṭhf	-10.1011
▁mela	-10.1011
▁sthiti	-10.1012
▁ধ	-10.1012
▁طرف	-10.1014
ന്ന	-10.1015
wk	-10.1016
▁rf	-10.1019
डे	-10.1019
hana	-10.102
ారు	-10.1021
▁koshish	-10.1022
▁ਕੇ	-10.1025
ger	-10.1025
▁th	-10.1028
▁gaoni	-10.103
▁post	-10.1032
▁મા	-10.1034
lin	-10.1034
▁দা	-10.1034
chcha	-10.1035
▁haan	-10.1035
बार	-10.1036
▁salee	-10.1037
mule	-10.1042
ಚ	-10.1042
L	-10.1044
ജ	-10.1049
▁वै	-10.1055
ലി	-10.1056
▁taaka	-10.106
▁okx	-10.1064
▁॥	-10.1068
▁ന	-10.107
କା	-10.1072
▁cutf	-10.1074
ଷ	-10.1076
▁বুলি	-10.1078
B	-10.1079
khar	-10.108
▁aasman	-10.1082
ہٕ	-10.1093
▁प्रा	-10.1097
৭	-10.1103
▁আছিল	-10.1104
▁ᱞᱟᱹᱜᱤᱫ	-10.1104
das	-10.1109
▁had	-10.1112
▁lama	-10.1112
କ୍	-10.1113
tva	-10.1114
▁mua	-10.1115
▁ḍuxfj	-10.1118
▁vara	-10.1122
▁rahal	-10.1126
ತ್ತ	-10.1126
▁krishi	-10.1127
▁সেই	-10.1137
▁andar	-10.114
ಲೆ	-10.1142
▁dunn	-10.115
ाचे	-10.1152
hit	-10.1154
▁anchal	-10.1155
▁gad	-10.1156
▁aii	-10.1158
▁paat	-10.1158
▁srot	-10.1159
ست	-10.116
gol	-10.116
▁jar	-10.116
oi	-10.1161
▁भारतीय	-10.1164
▁ಉ	-10.1164
▁गांवांत	-10.1164
भा	-10.1165
▁kale	-10.1165
▁जु	-10.1166
▁nehh	-10.1166
▁ꯍꯦꯟꯅ	-10.1172
▁saka	-10.1176
iyam	-10.1176
▁maal	-10.1184
▁asate	-10.1189
لہ	-10.119
▁dall	-10.1192
▁beni	-10.1194
▁nadee	-10.1194
sat	-10.1194
▁ਗ	-10.12
னை	-10.1201
▁আছে	-10.1205
gaar	-10.1207
৮	-10.1209
तर	-10.121
ాలు	-10.1211
▁প্ৰতি	-10.1215
ᱢᱤ	-10.1216
▁آھي	-10.1217
▁khana	-10.1219
▁তার	-10.122
▁anusaar	-10.122
ড়	-10.1222
▁lekh	-10.1229
galige	-10.1231
abad	-10.1232
aad	-10.1233
lar	-10.1233
ᱫᱽ	-10.1235
▁ર	-10.1235
▁param	-10.1239
tari	-10.1241
sham	-10.1242
ndra	-10.1243
सं	-10.1244
ச்	-10.1247
▁ᱵᱮ	-10.125
ker	-10.126
iyoon	-10.1264
ৌ	-10.1265
▁ਗਿਆ	-10.1266
▁ಸಂ	-10.1268
▁مطابق	-10.128
▁somao	-10.1283
rish	-10.1286
লী	-10.1287
▁रह	-10.1287
aha	-10.129
ꯨ	-10.1295
▁जन	-10.1298
path	-10.1299
யா	-10.1299
▁கா	-10.1299
▁ಮಾಡ	-10.1299
▁ہوا	-10.1299
ᱴᱟ	-10.1301
বোৰ	-10.1303
নৰ	-10.1307
ारि	-10.1309
▁khela	-10.1313
▁70	-10.1314
kaala	-10.1315
▁तक	-10.1315
▁uni	-10.1324
▁जिल्ला	-10.1326
▁um	-10.1327
▁ನಿ	-10.1329
▁modhye	-10.1329
▁ہوں	-10.133
▁sta	-10.1332
▁رو	-10.1333
ئے	-10.1334
▁ഈ	-10.1334
▁inhein	-10.1335
▁jiwan	-10.1335
ीत	-10.1338
ற	-10.134
ation	-10.1345
stho	-10.135
▁ام	-10.1352
ᱜᱟ	-10.1353
▁saar	-10.1354
▁ગ	-10.1357
rik	-10.1357
▁ਸਿੰਘ	-10.1358
bari	-10.1358
▁80	-10.136
▁lah	-10.1361
▁सेवा	-10.1361
ിക്ക	-10.1363
ంలో	-10.1363
▁gejerao	-10.1369
ಶ	-10.1371
▁45	-10.1373
yate	-10.1374
▁goth	-10.1376
▁aath	-10.1377
hri	-10.1378
ನ್ನು	-10.1382
▁फै	-10.1384
▁لی	-10.1384
تي	-10.1384
▁geet	-10.1385
▁lak	-10.1388
▁jeh	-10.1389
▁ꯑꯃꯁꯨꯡ	-10.139
્યા	-10.1394
ಂತ	-10.1395
▁kah	-10.1396
ছিল	-10.1396
▁bjp	-10.1397
▁khush	-10.1397
▁bisaiko	-10.1398
▁aakar	-10.14
ફ	-10.1402
▁apan	-10.1404
▁mand	-10.1405
▁sun	-10.1407
▁उत्तर	-10.141
ris	-10.141
▁sabha	-10.1413
▁يا	-10.1415
▁cheen	-10.1416
ीक	-10.1417
▁پا	-10.1417
▁दै	-10.1418
▁आप	-10.1419
▁ध	-10.1421
▁rupa	-10.1421
▁endru	-10.1422
ച	-10.1426
▁vid	-10.1427
ᱦᱟ	-10.1428
▁karda	-10.1434
ꯂꯤ	-10.1434
▁ᱠᱟᱛᱮ	-10.1435
mad	-10.1436
▁ᱞᱟ	-10.1439
jw	-10.1441
▁ڏ	-10.1444
▁kelee	-10.1445
ige	-10.1446
▁ᱡᱟ	-10.1446
▁pesh	-10.1454
▁ਦ	-10.1456
३	-10.1457
▁gare	-10.1457
ழ	-10.146
ొ	-10.146
१	-10.1463
ओ	-10.1464
லி	-10.1464
ত্র	-10.1466
aani	-10.1467
pai	-10.1471
▁vyavastha	-10.1471
▁honey	-10.1472
▁bhan	-10.1473
▁2010	-10.1478
▁gara	-10.1479
وی	-10.1483
yada	-10.1486
टर	-10.1488
▁গা	-10.1489
bir	-10.1492
▁करना	-10.1495
▁maatra	-10.1497
▁xon	-10.15
▁guwahati	-10.1503
▁janma	-10.1504
▁నుండి	-10.1504
▁চনত	-10.1506
and	-10.1507
ere	-10.151
ଙ୍ଗ	-10.1511
▁अन	-10.1514
▁পে	-10.1514
▁thara	-10.1516
▁लेई	-10.1518
ub	-10.152
ude	-10.152
ঠ	-10.1521
یک	-10.1523
ami	-10.1525
▁pasand	-10.1526
▁ali	-10.1531
▁laage	-10.1532
কাৰ	-10.1533
وا	-10.1533
ندا	-10.1537
ష	-10.1537
▁گئی	-10.1538
᱖	-10.154
▁con	-10.1546
ম্ব	-10.1549
▁ᱪᱟ	-10.1549
une	-10.1551
▁nathee	-10.1551
▁kom	-10.1554
endra	-10.1555
कि	-10.1561
▁ਸੰ	-10.1564
▁एवं	-10.1564
abha	-10.1566
▁ଦ	-10.1568
द्	-10.1571
▁শি	-10.1571
ḍṭh	-10.1575
टे	-10.1575
mati	-10.1576
▁jama	-10.1578
▁सगळ्यांत	-10.1578
ന്	-10.1578
eh	-10.1582
▁afraad	-10.1582
▁nila	-10.1584
gani	-10.1586
▁vishwa	-10.1589
▁در	-10.1589
▁pla	-10.159
▁এটা	-10.159
ন্ন	-10.1594
patta	-10.1599
▁rai	-10.16
ଧ	-10.16
▁op	-10.16
ല്ല	-10.1602
▁bach	-10.1604
▁nash	-10.1608
baa	-10.1609
▁vich	-10.1609
▁phone	-10.1609
▁oiba	-10.161
৬	-10.1611
▁xomoyot	-10.1614
▁itihaas	-10.1615
aah	-10.1619
गु	-10.1619
▁ꯏ	-10.1619
ccha	-10.162
▁hunchha	-10.1623
▁kamani	-10.1623
▁madhyam	-10.1626
▁pre	-10.1631
▁مشکل	-10.1632
انی	-10.1632
▁ఉ	-10.1633
ेर	-10.1634
▁aadhar	-10.1635
▁او	-10.1637
▁लग	-10.1639
▁grohon	-10.1641
jyo	-10.1643
▁garieko	-10.1644
▁idhu	-10.1648
▁dol	-10.1648
ᱛᱮ	-10.1649
ाने	-10.165
fwra	-10.165
▁ᱥᱤᱧᱚᱛ	-10.1651
ൊ	-10.1653
▁چھا	-10.1653
▁aaee	-10.1659
୍ୟ	-10.166
▁कोई	-10.166
▁idu	-10.1663
▁jin	-10.1663
▁niyam	-10.1664
▁bhael	-10.167
▁কৰিব	-10.1674
▁sh	-10.1674
▁فر	-10.1676
৫	-10.1679
▁board	-10.1679
▁وا	-10.1681
ଚ	-10.1684
▁kum	-10.1688
्रि	-10.1692
▁ghair	-10.1693
▁ullekh	-10.1695
ால்	-10.1697
▁निर्	-10.1698
▁सँ	-10.17
ਟੀ	-10.17
▁ಜ	-10.1702
▁oas	-10.1702
ेल	-10.1703
hw	-10.1703
▁ର	-10.1706
৩	-10.1708
▁number	-10.1714
rama	-10.1715
▁pen	-10.1718
nayao	-10.172
▁اضافہ	-10.1725
হে	-10.1726
nal	-10.1727
▁sangha	-10.1728
▁nei	-10.1729
eya	-10.1729
▁nfi	-10.1731
▁jaane	-10.1735
▁dosra	-10.1737
▁thar	-10.174
xokolor	-10.1742
ीं	-10.1744
▁2009	-10.1745
▁jodi	-10.1746
দুনা	-10.1748
▁khal	-10.1748
▁खु	-10.1749
▁tin	-10.175
▁یی	-10.1751
▁اجازت	-10.1758
isuva	-10.1761
▁hota	-10.1762
ଣ୍ଡ	-10.1767
યા	-10.1767
▁ifofd	-10.1771
꯭	-10.1772
▁general	-10.1773
▁ರ	-10.1774
kra	-10.1775
▁ay	-10.1778
▁ਉਹ	-10.178
ಳಿ	-10.1783
maanu	-10.1784
▁लागीं	-10.1786
ತೆ	-10.1788
▁dru	-10.179
pta	-10.1793
▁gujaraat	-10.1793
▁bii	-10.1793
raga	-10.1795
▁jog	-10.1796
▁hum	-10.1798
▁uttor	-10.1799
▁liyaa	-10.1799
▁satta	-10.1805
▁نک	-10.1806
dhana	-10.1807
▁U	-10.1808
bana	-10.1812
▁ᱢᱮ	-10.1814
ించ	-10.1824
▁ਪਰ	-10.1828
▁ور	-10.1828
ਮਾ	-10.183
पर	-10.1832
▁sangh	-10.1836
▁थिए	-10.1837
▁tene	-10.184
▁jabkah	-10.184
▁ని	-10.1841
েল	-10.1842
▁logote	-10.1847
▁fhfc	-10.1848
kkal	-10.1853
▁ପା	-10.1856
incha	-10.1858
nangwo	-10.1864
ৃ	-10.1864
▁pho	-10.1866
▁riyasat	-10.1866
വി	-10.1866
▁asal	-10.187
▁న	-10.1871
▁matha	-10.1873
dya	-10.1879
▁पो	-10.188
ote	-10.1882
isida	-10.1883
▁khu	-10.1887
▁ڪيو	-10.1894
▁ملک	-10.1894
gara	-10.1898
▁چھُ	-10.1904
▁sindhi	-10.1905
டை	-10.1905
bala	-10.1906
▁sambhav	-10.1906
▁ہونے	-10.1909
▁ᱯᱟᱹᱨᱥᱤ	-10.1913
▁darmiyan	-10.1914
ukku	-10.1914
▁khoob	-10.1916
▁xoite	-10.1917
क्क	-10.1918
▁R	-10.1919
▁ત	-10.192
▁vishva	-10.192
ऊ	-10.192
roo	-10.1922
▁panj	-10.1924
xokole	-10.1925
ము	-10.1925
▁emm	-10.1926
▁dou	-10.1927
ಲ್ಲ	-10.1929
मध्ये	-10.1931
▁arab	-10.1933
▁kamm	-10.1934
▁nish	-10.1939
▁bro	-10.1939
▁mail	-10.1944
ਿਆਂ	-10.1944
▁अधिक	-10.1946
▁aad	-10.1948
ror	-10.1948
▁চি	-10.195
ᱜᱽ	-10.1953
▁chikitsa	-10.1954
▁gandhi	-10.1954
kkam	-10.1955
▁•	-10.1955
uba	-10.1955
▁tamm	-10.1956
▁gibi	-10.1956
amaa	-10.1958
▁H	-10.1959
▁गोनां	-10.1961
یوں	-10.1961
▁chhod	-10.1962
guli	-10.1963
ite	-10.1963
▁ᱯᱚᱱᱚᱛ	-10.1966
▁uppara	-10.1968
▁pradhana	-10.1968
▁واقع	-10.1968
▁2008	-10.1972
men	-10.1972
രാ	-10.1977
▁hom	-10.198
మి	-10.198
▁uu	-10.1982
ঘ	-10.1985
▁بہت	-10.1989
▁bur	-10.199
ৱা	-10.1992
▁they	-10.1998
ମା	-10.1998
▁बै	-10.2
ꯁꯤ	-10.2004
ਿਕ	-10.2005
▁ene	-10.2011
▁nepalak	-10.2012
▁istemaal	-10.2013
pot	-10.2014
bin	-10.2016
▁३	-10.202
ണ്ട	-10.202
▁bajar	-10.2023
மாக	-10.2023
iz	-10.2024
thar	-10.2025
▁tareekh	-10.2026
thum	-10.2027
maaga	-10.2027
▁agg	-10.2028
▁vibhag	-10.2031
শা	-10.2032
▁মো	-10.2033
▁unna	-10.2035
▁ইয়াৰ	-10.2035
▁vaya	-10.2035
rao	-10.2038
▁praa	-10.2039
ள்	-10.2041
▁دل	-10.2042
▁kaarya	-10.2042
▁kiss	-10.2044
nalli	-10.2044
▁qaa	-10.205
▁చ	-10.2052
num	-10.2053
▁இந்த	-10.2057
ोर	-10.2059
▁شروع	-10.206
px	-10.2061
▁ڀ	-10.2062
ير	-10.2063
▁जी	-10.2065
▁laag	-10.2066
kale	-10.2066
▁অম	-10.2068
▁jehaan	-10.207
▁dauran	-10.2071
शि	-10.2072
▁sayao	-10.2072
▁kin	-10.2073
kram	-10.2074
ಗಳಲ್ಲಿ	-10.2076
▁yat	-10.2078
▁hato	-10.208
▁gfxft	-10.2085
મા	-10.2086
ನ್ನ	-10.2088
▁gejerjwng	-10.2089
kah	-10.209
▁য	-10.2092
aro	-10.2093
▁paan	-10.2095
dro	-10.2098
dina	-10.2098
▁paya	-10.2101
سی	-10.2105
सर	-10.2107
▁apana	-10.2107
▁حکومت	-10.2109
اق	-10.211
laya	-10.2115
ᱰᱟ	-10.2115
रै	-10.2123
▁mandal	-10.2125
nas	-10.2125
ꯇꯤ	-10.2125
சி	-10.2126
aaniki	-10.2128
asam	-10.2138
▁ᱱᱟ	-10.2139
രു	-10.214
▁৩	-10.2141
▁ila	-10.2145
शे	-10.2146
ṣf	-10.2147
می	-10.2149
▁تمام	-10.215
▁shu	-10.215
ভা	-10.2153
_	-10.2158
pani	-10.216
▁qaraan	-10.2161
▁kau	-10.2163
बी	-10.2172
▁moha	-10.2173
▁मोनसे	-10.2178
▁pand	-10.2178
റി	-10.2181
saan	-10.2182
dy	-10.2184
▁chandra	-10.2185
▁vu	-10.2187
▁ᱵᱚ	-10.2188
jh	-10.2189
yana	-10.2191
▁shaamil	-10.2191
▁tame	-10.2195
▁line	-10.2195
▁tel	-10.2195
▁ٿو	-10.2197
aw	-10.2198
▁karate	-10.2209
ડા	-10.2214
▁হায়	-10.2217
ുക	-10.2219
▁shareer	-10.2219
ءَ	-10.222
akki	-10.2224
ିଆ	-10.2227
eri	-10.2228
thaan	-10.223
saar	-10.2231
▁naan	-10.2231
▁pak	-10.2237
▁تا	-10.2238
ٽي	-10.224
kada	-10.2246
ಬ	-10.225
▁می	-10.225
ਰੇ	-10.2252
ட்டு	-10.2252
▁amaam	-10.2253
nak	-10.2253
▁90	-10.2257
᱕	-10.2259
ડી	-10.2259
▁bare	-10.226
dri	-10.2262
▁madhye	-10.2267
શે	-10.2269
▁ber	-10.2272
nik	-10.2272
▁haya	-10.2275
▁mano	-10.2278
mathi	-10.2278
యా	-10.2278
▁hoyeche	-10.2282
▁ھ	-10.2285
eu	-10.2286
ਧ	-10.2287
▁pham	-10.2287
വും	-10.2293
ઝ	-10.2294
anche	-10.2295
▁pulis	-10.2298
▁shake	-10.23
▁hick	-10.2303
▁ای	-10.2303
▁kur	-10.2304
ટી	-10.2305
गे	-10.231
▁isake	-10.2312
ਿਤ	-10.2315
ائے	-10.2317
▁kaaj	-10.2319
▁kisa	-10.232
▁देव	-10.2321
ble	-10.2322
sari	-10.2322
▁সময়	-10.2326
▁pah	-10.2326
nche	-10.2329
▁fra	-10.233
▁daan	-10.2332
▁V	-10.2333
ानि	-10.2333
▁taeen	-10.2334
▁pras	-10.2335
▁rakta	-10.2336
)	-10.2336
▁okxkh	-10.2336
▁iru	-10.234
▁apnaa	-10.234
▁র	-10.2341
▁লে	-10.2342
▁karyakram	-10.2343
▁2001	-10.2343
jha	-10.2346
▁min	-10.2348
▁baal	-10.235
▁राजा	-10.2353
▁prabha	-10.2353
▁hp	-10.2357
ో	-10.2359
▁khar	-10.2362
rup	-10.2362
stra	-10.2362
▁naat	-10.2363
▁cp	-10.2365
▁ના	-10.2371
▁kamee	-10.2371
يت	-10.2372
▁sei	-10.2373
▁ਐ	-10.2373
▁bacha	-10.2376
هي	-10.2378
laam	-10.2379
ard	-10.2381
▁baidi	-10.2389
▁jila	-10.2392
्यो	-10.2392
▁प्रकार	-10.2393
हर	-10.2394
ٮ۪ن	-10.2396
▁hindustan	-10.2398
▁ghat	-10.2399
ായ	-10.2401
ನಾ	-10.2401
▁antargat	-10.2403
▁prakash	-10.2406
▁lahoor	-10.2412
▁mahakki	-10.2412
tika	-10.2414
▁khe	-10.2415
tin	-10.2417
▁bir	-10.2419
▁nirmaan	-10.2421
▁jwng	-10.2422
pare	-10.2425
mbu	-10.2427
▁jamaa	-10.2428
ନି	-10.2429
▁prem	-10.2435
▁poorv	-10.2435
▁shiksha	-10.2436
▁شریک	-10.2438
liba	-10.244
ᱦᱚ	-10.2445
vana	-10.2445
stro	-10.2447
▁dudh	-10.2448
▁را	-10.2449
ਹਿ	-10.2452
▁dara	-10.2452
तु	-10.2454
anta	-10.2456
▁sthal	-10.246
▁kata	-10.2464
▁तां	-10.2467
pala	-10.247
akh	-10.2472
▁sva	-10.2473
ڙي	-10.2474
dde	-10.2481
▁নাম	-10.2485
लक	-10.2486
iyum	-10.249
▁bk	-10.249
tun	-10.2492
▁kaha	-10.2495
ral	-10.2498
▁mojud	-10.2501
▁rasool	-10.2504
▁eyee	-10.2509
ꯈꯤ	-10.2509
▁گئے	-10.2513
▁꯲	-10.2514
karta	-10.2518
▁yao	-10.2518
▁ਖ	-10.252
▁pii	-10.2522
▁sakda	-10.2523
▁pakh	-10.2526
▁hall	-10.2533
▁visha	-10.2537
يون	-10.2537
igal	-10.2537
सार	-10.2537
▁چو	-10.2538
▁একটি	-10.2538
ast	-10.2542
न्द	-10.2542
▁ఒక	-10.2544
50	-10.2544
▁کچھ	-10.2545
pt	-10.2546
▁এর	-10.2549
▁majhay	-10.2549
▁karjya	-10.255
ಕ್ಷ	-10.2551
▁جان	-10.2551
▁gayf	-10.2553
▁mula	-10.2557
▁सर	-10.2557
ten	-10.2562
kol	-10.2563
▁bon	-10.2565
▁নে	-10.2573
ᱭᱚ	-10.2573
▁32	-10.2574
▁sing	-10.2579
▁bhae	-10.2581
ei	-10.2582
▁basa	-10.2583
▁vishay	-10.2583
ଡି	-10.2584
U	-10.2585
▁kuri	-10.2589
▁rajyo	-10.2591
▁ll	-10.2591
സി	-10.2593
▁مش	-10.2593
ಯು	-10.2594
ঃ	-10.2597
▁somoy	-10.2597
rut	-10.2598
▁ਉ	-10.2598
▁ꯑꯃ	-10.2601
ਮੀ	-10.2602
▁yadi	-10.2603
▁matt	-10.2604
ଥିଲା	-10.2605
▁jagwn	-10.2606
▁shehar	-10.2606
யை	-10.2607
▁railway	-10.2607
▁xokolu	-10.2611
▁bhumika	-10.2613
▁জন	-10.2614
▁ويو	-10.2617
▁aene	-10.2621
▁चल	-10.2622
▁zameen	-10.2622
ಂಡ	-10.2623
▁ᱢᱤ	-10.2626
▁cham	-10.2626
▁shishu	-10.2627
▁पै	-10.2627
▁loe	-10.2627
▁vae	-10.2629
ক্	-10.263
▁byobohar	-10.263
▁balkah	-10.263
agiz	-10.2633
డ్	-10.2633
▁amasum	-10.2636
▁مح	-10.2638
▁illa	-10.2638
▁انہوں	-10.264
ನು	-10.2643
den	-10.2643
ᱵᱤ	-10.2644
▁computer	-10.2645
▁অদু	-10.2647
▁শা	-10.2649
▁naz	-10.265
▁2007	-10.2653
▁mut	-10.2657
▁pett	-10.2659
▁xe	-10.2659
▁nava	-10.2661
జ	-10.2662
10	-10.2663
▁aasit	-10.2664
ীৰ	-10.2664
▁ڈی	-10.2665
ano	-10.2667
▁nirm	-10.2667
దు	-10.2667
gaon	-10.2667
ांनी	-10.2675
wad	-10.2676
avaagi	-10.2677
▁madh	-10.2679
▁দু	-10.2679
क्र	-10.2682
ᱪ	-10.2684
᱓	-10.2684
ಲಾ	-10.2686
4	-10.2691
ikkum	-10.2697
uttade	-10.27
ண்ட	-10.2704
ळी	-10.2706
▁kou	-10.2706
▁maharashtra	-10.2709
▁કરી	-10.2709
जो	-10.271
▁kiha	-10.2711
▁tangnai	-10.2711
▁jisa	-10.2712
▁vyaa	-10.2716
▁bhavati	-10.2717
हार	-10.272
▁200	-10.2722
ിക	-10.2722
▁sim	-10.2723
▁ମା	-10.2723
▁اے	-10.2725
▁don	-10.2725
toon	-10.2727
isa	-10.2728
▁sawa	-10.2729
▁sub	-10.2731
লো	-10.2732
▁پیش	-10.2743
yer	-10.2746
धा	-10.2746
▁vadha	-10.2748
ज़	-10.2749
daru	-10.2754
▁vis	-10.2754
▁gareka	-10.2755
▁fer	-10.2757
கு	-10.276
▁mis	-10.2764
▁ହ	-10.2769
▁mung	-10.2769
ന്ത	-10.2771
samma	-10.2772
▁কম	-10.2774
▁خدای	-10.2776
▁aak	-10.2778
▁ᱤ	-10.2778
▁cfx	-10.2785
ैत	-10.2786
పు	-10.2786
▁chau	-10.2788
gun	-10.2788
सँ	-10.2791
चें	-10.2792
ঙ্গ	-10.2792
চি	-10.2795
mer	-10.2799
▁kir	-10.2799
▁faqat	-10.2801
▁হৈছিল	-10.2803
ಯನ್ನು	-10.2804
▁प्राप्त	-10.2804
▁کام	-10.2805
og	-10.2806
শ্	-10.2806
avan	-10.2809
▁joon	-10.281
ాల	-10.281
▁اسلام	-10.2812
rot	-10.2818
▁بھ	-10.2819
▁ସା	-10.2828
फोर	-10.2829
▁ਮੁ	-10.2831
िल	-10.2831
▁آئی	-10.2833
ವೆ	-10.2833
▁karr	-10.2837
wala	-10.284
▁sange	-10.2841
varu	-10.2842
▁june	-10.2845
naikwo	-10.2845
▁बस	-10.2846
▁अव	-10.2849
▁desha	-10.285
iyar	-10.2851
▁haibasi	-10.2851
raat	-10.2853
▁نظر	-10.2853
chchi	-10.2858
▁mele	-10.2859
mb	-10.286
▁दं	-10.2861
▁parivaar	-10.2865
▁آسن	-10.2865
▁tayar	-10.287
bra	-10.2872
▁paksh	-10.2874
▁mahi	-10.2874
▁horr	-10.2875
▁ଗ	-10.2875
sy	-10.2876
▁rail	-10.2878
paat	-10.2882
میہ	-10.2882
▁bahagw	-10.2882
▁aaji	-10.2888
४	-10.2889
▁ৰা	-10.2889
▁जादों	-10.2889
▁shikshan	-10.2891
▁jonmo	-10.2891
▁hawa	-10.2893
kash	-10.2894
ٿ	-10.2895
▁bwswr	-10.2899
ᱤ	-10.2899
zan	-10.2899
▁uho	-10.29
shat	-10.2904
▁utar	-10.2904
vel	-10.2908
▁জন্য	-10.2912
धी	-10.2914
nto	-10.2915
▁niye	-10.2916
ngkal	-10.2918
▁होते	-10.2919
dhee	-10.2919
ातील	-10.2921
▁afno	-10.2923
ಖ	-10.2925
▁ਲ	-10.2928
▁faa	-10.293
▁mohila	-10.293
▁মু	-10.2931
▁seho	-10.2932
▁kerr	-10.2935
tthu	-10.2939
▁موجود	-10.294
▁pancha	-10.294
▁hatoo	-10.2941
▁کل	-10.2947
F	-10.295
▁କରିବା	-10.295
shik	-10.2951
▁itihas	-10.2952
▁नेईं	-10.2952
adinda	-10.2954
᱒	-10.2954
୧	-10.2955
▁tai	-10.2956
वन	-10.2957
▁veli	-10.2958
▁ଏହା	-10.2959
▁athavaa	-10.2961
▁bhabe	-10.2962
▁bortoman	-10.2962
্ব	-10.2965
दर्श	-10.2966
▁gahar	-10.2967
▁bw	-10.2967
یس	-10.2969
ওয়া	-10.2971
மி	-10.2971
ಭ	-10.2973
وار	-10.2974
07	-10.2975
▁avaru	-10.2976
▁april	-10.2977
▁yasa	-10.2977
▁ᱟᱹᱰᱤ	-10.298
▁lamao	-10.2981
▁होता	-10.2982
ಷ	-10.2985
▁tang	-10.2987
▁لوکھ	-10.2989
▁ahal	-10.2992
▁ಗ	-10.2993
▁bank	-10.2994
▁ମଧ୍ୟ	-10.2994
zhu	-10.2996
▁warsha	-10.2996
▁nand	-10.3007
▁gul	-10.3008
▁ꯂꯩ	-10.3009
▁pana	-10.3009
৪	-10.301
▁vin	-10.3015
▁baare	-10.3017
▁taj	-10.3018
ढ	-10.302
▁reete	-10.3022
▁تہء	-10.3023
▁punar	-10.3025
▁ভা	-10.3026
▁ᱟᱠᱟᱱᱟ	-10.3027
zhi	-10.3028
▁khub	-10.3029
্ৰ	-10.3031
▁sahitya	-10.3032
▁allathu	-10.3033
▁75	-10.3036
ଲେ	-10.3044
▁xk	-10.3044
ड़ी	-10.3044
tab	-10.3045
▁xikhya	-10.3046
▁sau	-10.3046
ഡ്	-10.3048
▁તેમ	-10.3051
▁yemi	-10.3052
▁رہا	-10.3052
kho	-10.3055
▁राव	-10.3056
▁حضرت	-10.3057
maina	-10.3058
▁प्रदेश	-10.3059
▁vidh	-10.3061
▁chalchitra	-10.3061
▁शे	-10.3062
▁lfe	-10.3062
nj	-10.3065
▁oxom	-10.3067
বগী	-10.3068
▁yamna	-10.3068
▁ਭ	-10.3069
▁kad	-10.3069
بی	-10.307
star	-10.3072
▁சி	-10.3075
▁wk	-10.3076
▁hayaba	-10.3076
नायाव	-10.3081
▁baaz	-10.3084
▁holl	-10.3085
▁33	-10.3086
▁barsha	-10.3087
fl	-10.3091
▁पुलिस	-10.3092
সে	-10.3092
▁अर्थ	-10.3094
lis	-10.3094
लै	-10.3096
▁یمہ	-10.3096
দগী	-10.3096
▁laal	-10.3097
▁vishaya	-10.3098
▁neta	-10.3104
மான	-10.3105
▁ائس	-10.3106
shee	-10.3109
ੋਂ	-10.311
▁nepali	-10.3112
▁kokrajhar	-10.3115
maaya	-10.3115
त्या	-10.3116
atil	-10.3116
▁পো	-10.3118
ंक	-10.3118
കൾ	-10.3119
ত্ৰ	-10.3121
▁ṭaṭṭhf	-10.3124
▁miray	-10.3125
tte	-10.3125
▁کرنہ	-10.3126
tama	-10.3128
▁ari	-10.3131
upa	-10.3133
▁ter	-10.3135
▁kela	-10.3135
▁samaja	-10.314
▁vaali	-10.3143
▁jeko	-10.3147
▁स्थान	-10.3148
▁గ	-10.3157
▁گر	-10.3159
मु	-10.3161
kshan	-10.3161
ਵਾ	-10.3164
ꯔꯥ	-10.3164
bhav	-10.3167
▁labh	-10.3169
নী	-10.3172
ંગ	-10.3177
▁beej	-10.318
▁chah	-10.3181
▁मै	-10.3182
▁jagah	-10.3184
▁kare	-10.3185
▁paschim	-10.3189
ꯕꯤ	-10.3195
ଥିବା	-10.3197
▁ਹੀ	-10.3197
▁હોય	-10.32
▁vichaar	-10.3201
▁பா	-10.3201
ಟ್ಟ	-10.3205
றி	-10.3208
diaan	-10.321
দে	-10.3211
▁अंतराचेर	-10.3211
▁sucana	-10.3215
harule	-10.3215
▁tinn	-10.3216
▁chahiye	-10.322
ᱤᱭᱟᱹ	-10.3221
১	-10.3225
▁ହୋଇ	-10.3226
কৰ	-10.3226
▁muhamid	-10.3228
▁hanga	-10.3229
▁bag	-10.323
twa	-10.3231
▁gir	-10.3231
▁saga	-10.3235
್	-10.3237
▁chang	-10.3237
ᱼ	-10.3242
▁ਕੀਤੀ	-10.3243
▁kill	-10.3243
zar	-10.3247
മ്മ	-10.3249
mas	-10.3249
ᱞᱚ	-10.3249
laku	-10.325
▁pam	-10.325
qu	-10.3253
▁americi	-10.3254
kondu	-10.3254
েন	-10.3255
ଭ	-10.3262
mf	-10.3262
ച്ച	-10.3268
▁ᱨᱟ	-10.3268
▁کرنا	-10.3269
लु	-10.327
▁jaanib	-10.3271
▁maas	-10.3273
▁tasya	-10.3274
ക്ക്	-10.3274
▁chey	-10.3277
▁union	-10.3277
sabha	-10.3278
haa	-10.328
▁luk	-10.3281
▁বিভিন্ন	-10.3282
thara	-10.3282
వి	-10.3284
▁sanga	-10.3285
▁अनुसार	-10.3285
कु	-10.329
thinu	-10.329
skar	-10.3293
ff	-10.3294
मो	-10.3295
ின்	-10.3299
ുള്ള	-10.33
ks	-10.33
▁sel	-10.3301
▁kaary	-10.3302
▁upar	-10.3306
▁ભ	-10.3307
▁आहेत	-10.3309
▁unda	-10.3309
▁paddhati	-10.331
▁जन्म	-10.331
▁योजना	-10.331
دا	-10.3312
▁aava	-10.3314
▁adhu	-10.3314
▁awasthit	-10.3316
▁menz	-10.3316
മാണ്	-10.3318
hot	-10.332
▁bigyan	-10.332
ത്ര	-10.3322
▁دور	-10.3326
▁تمن	-10.3327
▁ওই	-10.3328
▁ਨਾ	-10.3328
▁பு	-10.3328
▁biswo	-10.3329
ᱱᱚ	-10.333
ᱡᱤ	-10.3331
ᱮ	-10.3332
ానికి	-10.3333
લો	-10.3333
রু	-10.3334
swi	-10.3335
▁झ	-10.3337
ਓ	-10.3337
shaa	-10.3337
മ്പ	-10.3341
ḍa	-10.3341
▁2006	-10.3342
onor	-10.3343
▁saktaa	-10.3347
ꯩ	-10.3349
▁kham	-10.3351
▁baja	-10.3355
aphama	-10.3357
▁yauni	-10.3357
nce	-10.3361
▁তেওঁৰ	-10.3363
▁होने	-10.3365
اح	-10.3366
thya	-10.3366
ct	-10.3367
તી	-10.3369
vit	-10.337
ಿಕೆ	-10.3371
06	-10.3371
▁ner	-10.3372
▁asey	-10.3372
▁aisa	-10.3373
▁eur	-10.3374
▁کیازء	-10.338
▁cam	-10.3381
▁woan	-10.3382
rin	-10.3385
▁حاصل	-10.3389
▁karod	-10.3391
▁ᱢᱚ	-10.3392
▁men	-10.3395
▁dost	-10.3396
▁arr	-10.3398
▁kashmeer	-10.3398
▁miti	-10.3399
▁cauba	-10.3403
▁jor	-10.3407
मोन	-10.3408
lanu	-10.341
▁aya	-10.3411
11	-10.3416
▁hune	-10.3416
▁چھوس	-10.3416
▁nokor	-10.3418
▁qeemat	-10.3419
▁ಹಾ	-10.3421
▁ḍṭhf	-10.3421
▁ph	-10.3422
eshu	-10.3425
▁saja	-10.3426
▁kabhi	-10.3428
▁iva	-10.343
▁یتہ	-10.343
ಿದೆ	-10.3432
les	-10.3437
▁ਨਹੀਂ	-10.3439
هه	-10.3439
▁मुख्य	-10.3443
▁પા	-10.3445
▁শু	-10.3445
aalu	-10.3445
▁జ	-10.3446
deh	-10.3447
ளி	-10.3448
▁থকা	-10.3452
▁کرو	-10.3452
▁thiru	-10.3455
▁સાથે	-10.3456
▁punjab	-10.3456
▁aarombho	-10.346
▁karaw	-10.3461
یز	-10.3463
▁station	-10.3464
▁dhi	-10.3464
▁आसाम	-10.3464
▁फु	-10.3466
▁hamaray	-10.3469
বলৈ	-10.3471
ധ	-10.3471
رم	-10.3471
▁ᱥ	-10.3472
ದಿ	-10.3473
▁bela	-10.3476
ांची	-10.3477
bhut	-10.3477
▁thiba	-10.3477
▁روز	-10.348
chhi	-10.348
▁karwan	-10.3482
▁ᱫᱤᱥᱚᱢ	-10.3485
▁bis	-10.3485
▁notun	-10.3486
న్న	-10.3486
▁nau	-10.3489
▁raam	-10.349
▁hotey	-10.3491
▁chhai	-10.3492
▁prakar	-10.3492
▁जायो	-10.3493
▁aash	-10.3493
▁sorkar	-10.3494
dani	-10.3495
▁vada	-10.35
▁iux	-10.3501
illa	-10.3505
▁cor	-10.3508
▁হে	-10.3509
▁sol	-10.351
▁ᱜᱚ	-10.3515
▁توفیق	-10.3516
▁khadaa	-10.352
▁سوء	-10.352
▁घ	-10.3521
▁आई	-10.3521
▁tika	-10.3521
▁লোক	-10.3523
▁waala	-10.3527
tare	-10.3528
▁धर्म	-10.3532
laga	-10.3534
▁deane	-10.3534
▁shesh	-10.3535
03	-10.3535
▁kuneh	-10.3535
ction	-10.3538
▁panjaab	-10.3539
▁september	-10.3545
enda	-10.3546
▁kim	-10.3547
▁mioi	-10.3549
mgaa	-10.3549
▁pashu	-10.355
ंच	-10.3554
సి	-10.3554
edu	-10.3557
▁bhai	-10.3562
▁گژھن	-10.3562
04	-10.3562
naya	-10.3565
▁خلاف	-10.3566
▁pradan	-10.3567
ଉ	-10.3567
▁dii	-10.3567
ഡ	-10.3568
▁putt	-10.357
▁os	-10.3573
▁mell	-10.3574
▁mote	-10.3576
aen	-10.3577
▁نو	-10.3578
▁pratishat	-10.3579
िस	-10.3582
▁डा	-10.3584
▁paath	-10.3586
▁jehan	-10.3586
▁makkal	-10.3587
▁sena	-10.359
▁praja	-10.3592
▁ditti	-10.3594
had	-10.3596
▁suna	-10.3599
▁degree	-10.36
▁jaga	-10.3603
pok	-10.3606
ଥିଲେ	-10.3607
▁dharm	-10.3608
▁charcha	-10.3608
ore	-10.3611
lṭ	-10.3615
ৰু	-10.3617
ത്തെ	-10.3618
ಟಿ	-10.3621
kkaan	-10.3623
▁ghe	-10.3626
▁caisin	-10.3629
▁vala	-10.363
kalum	-10.363
▁naja	-10.3639
▁മു	-10.3641
▁gaswi	-10.3643
▁bidhan	-10.3643
yukt	-10.3643
▁கு	-10.3646
▁noo	-10.3648
▁2005	-10.3654
মে	-10.3655
▁avtaran	-10.3657
▁puraskar	-10.3657
ந்து	-10.3657
gho	-10.3657
lang	-10.3657
▁varg	-10.3659
▁ithu	-10.366
▁niyama	-10.3664
▁bel	-10.3665
▁کریں	-10.3668
▁voa	-10.3668
▁ساعتہ	-10.3669
▁august	-10.367
टो	-10.3672
فر	-10.3673
▁આવે	-10.3676
iv	-10.3676
▁adaa	-10.3679
▁logot	-10.368
▁hfxfi	-10.3682
▁chinta	-10.3682
▁kendram	-10.3683
▁biyaan	-10.3683
ಕಿ	-10.3683
▁kaya	-10.3684
▁graamamlo	-10.3684
aja	-10.3685
▁gao	-10.369
ाउन	-10.3692
▁bhitorot	-10.3697
jal	-10.37
▁खो	-10.3701
▁ती	-10.3701
zarb	-10.3702
من	-10.3702
ச்ச	-10.3702
ൾ	-10.3704
▁سارنی	-10.3704
▁bhoo	-10.3705
▁బ	-10.3707
த்தை	-10.3707
▁aav	-10.3708
▁thala	-10.3708
ഞ്ഞ	-10.371
യാണ്	-10.3713
▁তৌ	-10.3713
رن	-10.3715
▁wal	-10.3716
ndar	-10.3717
▁অনু	-10.3717
rom	-10.372
ꯈ	-10.3722
▁ahmad	-10.3722
tale	-10.3722
G	-10.3723
▁کرء	-10.3723
ਣਾ	-10.3727
ધ	-10.3732
ாக	-10.3734
▁आस	-10.3734
স্ট	-10.3735
ଙ୍କୁ	-10.3736
▁jaanay	-10.3737
▁مگر	-10.3738
▁चु	-10.3739
▁sir	-10.3744
▁آر	-10.3744
▁luqur	-10.3745
adhi	-10.3746
▁500	-10.3749
▁varsaa	-10.375
▁suk	-10.3751
▁cahi	-10.3755
తు	-10.3756
જા	-10.3757
ുകൾ	-10.376
aththil	-10.3762
▁ಸಾ	-10.3766
▁hone	-10.3766
atah	-10.3769
▁hk	-10.377
kalin	-10.377
▁kworang	-10.3771
▁sameepa	-10.3773
▁enniva	-10.3774
کا	-10.3774
uch	-10.3777
▁dherai	-10.3779
▁agast	-10.378
▁madu	-10.3783
▁mutt	-10.3783
▁શ	-10.3787
▁muf	-10.3788
isalu	-10.3789
▁عمل	-10.3792
ാം	-10.3792
▁ھن	-10.3795
▁eke	-10.3798
▁ep	-10.3798
yee	-10.38
eeya	-10.38
dev	-10.3801
▁ful	-10.3801
mik	-10.3801
সমূহ	-10.3802
▁بننہ	-10.3804
▁کرنک	-10.3806
▁منگن	-10.3809
▁vapar	-10.381
▁uda	-10.3812
▁court	-10.3812
chhan	-10.3813
▁bhav	-10.3813
▁خدایا	-10.3813
▁হোৱা	-10.3815
hito	-10.3815
ᱥᱚ	-10.3816
ळा	-10.3818
ಾಗಿ	-10.3819
▁منزء	-10.3823
ني	-10.3825
aay	-10.3827
▁ze	-10.3828
▁sabai	-10.3829
▁श्री	-10.383
▁میلن	-10.3832
acher	-10.3833
alaya	-10.3833
▁ᱛᱟ	-10.3834
र्ड	-10.3838
▁antha	-10.3839
▁chalaan	-10.3842
▁vaidya	-10.3843
▁dh	-10.3846
▁british	-10.3848
▁ꯀ	-10.3849
▁لاءِ	-10.3849
vama	-10.3849
ਟਰ	-10.3851
▁wee	-10.3853
jam	-10.3854
▁dil	-10.3857
▁koy	-10.3858
▁gajfc	-10.3858
▁ᱯᱩ	-10.386
▁ꯁ	-10.3861
▁bij	-10.3861
▁চে	-10.3864
োৱা	-10.3867
▁জা	-10.3868
▁adhikar	-10.3868
▁kehna	-10.3869
▁कै	-10.3872
▁sadr	-10.3874
ବି	-10.3874
▁ꯑꯗꯨ	-10.3874
▁साल	-10.3875
ସି	-10.3875
▁adhyayan	-10.3876
▁gal	-10.3876
ڊ	-10.3878
▁pazi	-10.3878
▁ఉంది	-10.3878
▁چیزن	-10.3879
▁تیوت	-10.388
▁وونم	-10.388
▁bolly	-10.3881
▁kinwa	-10.3881
زء	-10.3884
ہر	-10.3885
▁kall	-10.3886
▁kondu	-10.3886
▁khun	-10.3886
ddu	-10.3887
▁گسان	-10.3887
yile	-10.389
▁jaata	-10.389
▁mohorwi	-10.3891
▁લ	-10.3891
krit	-10.3892
ser	-10.3894
▁mahakna	-10.3895
▁منگنہ	-10.3897
▁kissy	-10.39
uku	-10.3901
▁खेल	-10.3903
▁shet	-10.3903
▁सब	-10.3908
▁banda	-10.3908
▁केंद्र	-10.3909
haruma	-10.3911
ਾਰ	-10.3915
indi	-10.3917
▁جی	-10.3917
▁pratyek	-10.3917
▁upraant	-10.3921
▁विश्व	-10.3923
हरु	-10.3926
▁alam	-10.393
jat	-10.3931
ᱰᱤ	-10.3932
▁ચ	-10.3936
▁kimm	-10.3936
uvu	-10.3938
▁sakata	-10.394
15	-10.394
fat	-10.3942
▁taley	-10.3942
ುತ್ತದೆ	-10.3942
ttam	-10.3944
بندء	-10.3944
▁gri	-10.3947
▁ᱠᱩ	-10.3947
ിന്റെ	-10.3948
N	-10.3949
▁गर्ने	-10.395
fal	-10.3953
▁ᱥᱩ	-10.3956
डि	-10.3958
દા	-10.3961
ਕਾ	-10.3962
▁aain	-10.3963
▁ओह्	-10.3964
3	-10.3967
اء	-10.3967
▁tyas	-10.3969
xfc	-10.3969
▁ডি	-10.3969
గు	-10.3975
ghar	-10.3977
▁december	-10.398
▁فی	-10.3983
▁J	-10.3986
unk	-10.3986
▁સા	-10.3988
shil	-10.399
▁ghatana	-10.3991
▁farmaya	-10.3993
ंगा	-10.3995
▁tre	-10.3997
▁ghatt	-10.3998
▁L	-10.4001
▁heth	-10.4003
▁niz	-10.4005
▁fñbp	-10.4009
▁কথা	-10.4009
▁bat	-10.401
▁khetee	-10.4013
vish	-10.4013
▁jawaab	-10.4016
ꯈꯤ꯫	-10.4019
▁suvidha	-10.4019
angalil	-10.4021
▁ജ	-10.4022
▁vatav	-10.4023
▁thana	-10.4023
▁eux	-10.4026
▁card	-10.4027
ᱞᱮ	-10.403
ما	-10.4032
▁ری	-10.4033
jah	-10.4035
్	-10.4036
▁ط	-10.4036
▁bosor	-10.404
▁অমদি	-10.404
ரை	-10.4043
▁رکھ	-10.4045
▁chaahiye	-10.4045
▁byakti	-10.4047
வர்	-10.4057
▁bhoomi	-10.4058
▁hak	-10.4058
kas	-10.4058
▁odisha	-10.406
▁khad	-10.406
▁soorat	-10.406
ox	-10.4061
▁जिला	-10.4063
கை	-10.4064
▁پہلے	-10.4064
▁wasalam	-10.4065
ਵਾਂ	-10.4068
asy	-10.4073
▁ket	-10.408
▁നി	-10.408
▁upyog	-10.4082
ᱡᱟ	-10.4083
▁jaat	-10.4084
ಕಾ	-10.4085
▁asea	-10.4086
▁हुन	-10.4088
িং	-10.4089
ٔ	-10.4093
vadi	-10.4094
khre	-10.4097
▁nara	-10.4097
▁kot	-10.4102
ান	-10.4102
▁chhilo	-10.4103
▁ਸ਼	-10.4103
▁پو	-10.4104
▁లో	-10.4108
▁ঘ	-10.4109
త్	-10.4109
सन	-10.4112
శ	-10.4112
▁yite	-10.4117
ాయి	-10.4118
▁bla	-10.4118
ḍhw	-10.4118
siya	-10.4119
▁एस	-10.4121
▁ᱫᱟ	-10.4123
pin	-10.4126
▁४	-10.4126
୦	-10.413
anchya	-10.4131
▁agba	-10.4132
pura	-10.4132
▁ସହ	-10.4144
ꯂ	-10.4145
ঞ্জ	-10.4145
▁hab	-10.4146
▁jald	-10.4149
▁अस्ति	-10.415
▁sharma	-10.415
ise	-10.4158
▁ᱢᱩ	-10.4158
tru	-10.416
▁samet	-10.416
▁रु	-10.4165
▁দেশ	-10.4168
▁আদি	-10.4169
▁panch	-10.4169
▁vari	-10.4169
▁प्रयोग	-10.4172
tis	-10.4173
▁kanen	-10.4174
pwr	-10.4176
▁خدا	-10.4177
▁november	-10.4179
vah	-10.4179
▁aksar	-10.4181
lax	-10.4182
▁rajdhani	-10.4183
▁علیہ	-10.4184
▁गोबां	-10.4185
▁kaunasi	-10.4185
thak	-10.4186
▁mada	-10.4186
▁bini	-10.4187
▁ejon	-10.4187
▁hoon	-10.4187
ttha	-10.4187
ꯅꯕ	-10.4187
kay	-10.419
কু	-10.419
▁᱑	-10.4191
▁kise	-10.4193
▁ఉన్నాయి	-10.4193
▁samajik	-10.4193
▁इन	-10.4195
qah	-10.4196
▁gre	-10.4198
▁abdul	-10.4199
wf	-10.42
▁شر	-10.4201
▁yogya	-10.4201
ಾಂ	-10.4202
▁ᱮᱱᱟ	-10.4202
▁indiya	-10.4203
▁rakha	-10.4206
▁moth	-10.4206
mit	-10.4209
bri	-10.4211
गो	-10.4216
hf	-10.4216
انے	-10.4216
▁৫	-10.4217
▁totha	-10.4218
yulla	-10.4223
শি	-10.4223
▁ذ	-10.4224
▁tyo	-10.4226
▁লাভ	-10.4227
▁moaj	-10.4231
నే	-10.4232
gee	-10.4232
ᱜᱚ	-10.424
▁भाषा	-10.424
হি	-10.4242
vati	-10.4242
▁ڪي	-10.4244
▁baasan	-10.4246
udu	-10.4246
▁covid	-10.4249
५	-10.4249
▁endra	-10.4252
▁cher	-10.4255
बे	-10.4255
▁यां	-10.4255
▁jankari	-10.4257
മായി	-10.4261
mand	-10.4261
dir	-10.4262
▁kavita	-10.4262
▁য়া	-10.4262
▁dagi	-10.4263
ంది	-10.4264
pane	-10.4264
नु	-10.4264
bas	-10.4265
▁কিন্তু	-10.4267
galil	-10.4268
▁جنهن	-10.4269
ಮಿ	-10.4276
▁sou	-10.4276
dhara	-10.4277
▁alag	-10.4277
ூ	-10.428
▁gaammaan	-10.4281
ेको	-10.4282
▁afad	-10.4283
গে	-10.4283
▁Co	-10.4284
ৰো	-10.4285
age	-10.4286
kade	-10.4287
kriti	-10.4291
دي	-10.4293
▁بي	-10.4294
▁khaatir	-10.4295
ेँ	-10.4296
▁chashman	-10.4298
ڳ	-10.4298
▁ଚ	-10.4298
▁yahee	-10.43
▁dore	-10.43
▁ax	-10.43
chak	-10.4302
▁seten	-10.4305
▁rach	-10.4306
▁zafran	-10.4307
شن	-10.4309
पाल	-10.4311
ov	-10.4312
▁yiti	-10.4315
▁খু	-10.4316
thin	-10.4317
▁jah	-10.4319
▁kareyn	-10.4322
▁assamni	-10.4323
▁muta	-10.4324
▁zamine	-10.4325
▁ਸੁ	-10.4326
dkane	-10.4328
अ	-10.4328
▁ᱯᱚ	-10.4331
▁vuchhu	-10.4334
▁hea	-10.4334
▁naga	-10.4338
▁দল	-10.4338
shiya	-10.4339
aniki	-10.4339
▁thau	-10.4339
▁khon	-10.4342
▁ghata	-10.4344
▁lagbhag	-10.4344
▁was	-10.4347
bandh	-10.4348
janai	-10.4352
बु	-10.4353
12	-10.4353
تر	-10.436
▁cheez	-10.4366
▁lal	-10.4368
▁pind	-10.4368
ddi	-10.4369
02	-10.437
સી	-10.4372
ഭ	-10.4374
▁آف	-10.4375
▁صاحب	-10.4376
ात्	-10.4377
xok	-10.438
▁ᱞᱮᱱᱟ	-10.4381
mber	-10.4383
▁ᱡᱟᱦᱟᱸ	-10.4384
▁kehi	-10.4386
▁aasat	-10.4387
വാ	-10.4387
▁ᱦᱚ	-10.4388
جا	-10.4389
रिया	-10.439
▁ᱨᱮᱱ	-10.439
▁ସଂ	-10.4391
ଏ	-10.4395
▁شامل	-10.4396
्वा	-10.4398
ক্ল	-10.4399
▁utte	-10.4399
▁tshata	-10.4403
▁kanse	-10.4403
▁مع	-10.4406
H	-10.4407
▁chyem	-10.4409
▁fwi	-10.441
▁khas	-10.4414
▁for	-10.4414
▁mod	-10.4414
▁ফা	-10.4418
▁जिस	-10.4418
▁naafe	-10.442
kw	-10.4426
ଥ	-10.4427
▁jung	-10.4428
দু	-10.4434
▁کھ	-10.4436
▁padi	-10.4437
▁gaanv	-10.4438
▁°	-10.444
ियां	-10.4441
▁mami	-10.4443
uvudu	-10.4444
port	-10.4445
▁सुबुं	-10.4445
dang	-10.4448
▁ꯆꯩꯁꯤꯡ	-10.4448
sad	-10.4451
▁valar	-10.4452
▁jw	-10.4452
द्य	-10.4455
thaal	-10.4456
▁cumm	-10.4461
▁lwgw	-10.4461
▁بار	-10.4462
वाद	-10.4463
দো	-10.4468
▁jhu	-10.4469
▁pav	-10.447
ిన	-10.4471
▁loga	-10.4471
মু	-10.4472
ਾਹ	-10.4473
مان	-10.4473
ષ	-10.4473
▁ৱা	-10.4475
▁puja	-10.4476
▁paristhiti	-10.448
দেশ	-10.4481
▁bharti	-10.4485
wadi	-10.4486
▁দিন	-10.4489
hk	-10.449
ਫ਼	-10.4491
▁bari	-10.4492
bhu	-10.4495
ம்ப	-10.4495
▁تہٕ	-10.4496
▁aisey	-10.4496
ਗਰ	-10.4497
▁vish	-10.4499
▁sach	-10.45
▁bhor	-10.4501
୍ୟା	-10.4503
30	-10.4504
▁swar	-10.4505
꯵	-10.4505
▁صرف	-10.4506
▁val	-10.4506
▁roopa	-10.4508
▁tareeke	-10.4509
বী	-10.4511
▁சு	-10.4511
▁डि	-10.4512
নের	-10.4512
▁ಎಂದು	-10.4515
▁afadgiri	-10.4515
iyah	-10.4516
▁disa	-10.4516
▁sambandhit	-10.4518
▁ಒ	-10.4519
▁rupay	-10.4524
▁পি	-10.4526
unnu	-10.4527
▁mazeed	-10.4529
▁خود	-10.4532
▁bung	-10.4533
ਵੇ	-10.4534
▁aakh	-10.4535
رس	-10.4539
daanech	-10.4539
્ર	-10.454
yati	-10.4541
▁dikha	-10.4541
▁সম	-10.4543
▁satya	-10.4544
▁गे	-10.4545
▁ꯆꯥꯎꯕ	-10.4546
▁bharotiyo	-10.4547
▁bury	-10.4547
▁tahat	-10.4548
ود	-10.4549
▁vichar	-10.4551
▁استعمال	-10.4555
▁aabadi	-10.4557
▁antim	-10.4557
▁dig	-10.4559
ధ	-10.4559
▁निर्माण	-10.4561
மா	-10.4564
▁ᱠᱟᱱ	-10.4567
चार	-10.457
യാ	-10.4571
ହା	-10.4571
য়ু	-10.4572
▁माव	-10.4572
▁internet	-10.4578
▁ley	-10.458
▁aavee	-10.4585
▁کار	-10.4585
sco	-10.4586
▁دیکھ	-10.4587
కా	-10.4588
▁dal	-10.4588
ઇ	-10.459
▁gana	-10.4593
▁राम	-10.4601
▁shaqs	-10.4603
گر	-10.4603
▁ver	-10.4604
thal	-10.461
▁block	-10.4615
▁october	-10.4616
▁daar	-10.4616
क्ख	-10.4617
ിച്ചു	-10.4617
▁kheti	-10.4621
▁dosh	-10.4621
▁लै	-10.4621
▁div	-10.4622
arth	-10.4623
koron	-10.4623
▁khatam	-10.4624
ાં	-10.4628
achem	-10.4634
▁neeti	-10.4634
▁দিয়ে	-10.4635
▁parinam	-10.4636
▁garbha	-10.4638
▁keym	-10.4638
▁اک	-10.464
ep	-10.4642
fwrkwo	-10.4644
द्र	-10.4647
▁makmal	-10.4649
▁chuk	-10.4651
aana	-10.4654
▁jab	-10.4655
▁kalamnai	-10.4656
▁rong	-10.4659
০	-10.4659
▁aadhunik	-10.466
77	-10.466
▁mili	-10.466
▁hayw	-10.4662
▁ଭ	-10.4662
khu	-10.4663
ଂ	-10.4663
نڈ	-10.4664
▁दिनै	-10.4668
್ಯ	-10.4668
taat	-10.4671
▁kudi	-10.4671
▁mandir	-10.4674
ಥ	-10.4674
▁kwo	-10.4674
was	-10.4675
▁qomi	-10.4679
aram	-10.468
▁நி	-10.4681
▁ci	-10.4682
ಯಾ	-10.4684
▁सूचना	-10.4686
▁boi	-10.4687
est	-10.4691
▁mit	-10.4691
▁poth	-10.4693
▁uttara	-10.4694
▁చే	-10.4697
▁kora	-10.4697
▁moto	-10.4698
gasinw	-10.4698
꯷	-10.47
hita	-10.4703
▁ac	-10.4703
ꯁꯨ	-10.4704
▁ٹی	-10.4709
▁raaja	-10.471
▁matam	-10.471
▁होई	-10.4711
▁बार	-10.4711
▁ಒಂದು	-10.4712
▁abo	-10.4712
▁ખ	-10.4713
▁safal	-10.4717
তো	-10.4718
▁उनाव	-10.4718
దా	-10.4722
▁neer	-10.4726
▁કરવામાં	-10.4726
ਭ	-10.4727
gna	-10.4728
▁asina	-10.473
হন	-10.4731
▁bhagma	-10.4732
▁pin	-10.4732
धि	-10.4737
ांच्या	-10.4738
ken	-10.474
▁sath	-10.474
وس	-10.4741
▁ᱜᱟ	-10.4742
▁আন	-10.4745
agalu	-10.4745
ں	-10.4746
▁lon	-10.4749
jog	-10.4749
▁नेपाल	-10.475
ttar	-10.4751
▁بنا	-10.4752
ندو	-10.4757
▁بے	-10.4757
▁waji	-10.4758
tok	-10.4758
cy	-10.4766
▁dam	-10.4768
▁vakkh	-10.4768
▁زمین	-10.4771
చ	-10.4775
ങ്ങള	-10.4776
▁dine	-10.4776
shana	-10.4777
rana	-10.4779
नां	-10.4783
ಿಗೆ	-10.4785
ej	-10.4785
gp	-10.4787
amsha	-10.4788
▁hond	-10.479
uta	-10.4791
▁꯱	-10.4791
بل	-10.4793
ल्ल	-10.4795
ೌ	-10.4795
లను	-10.4796
▁কৰাৰ	-10.4796
▁থাকে	-10.4797
▁jillani	-10.4799
ाया	-10.48
▁mp	-10.4801
▁road	-10.4802
ڪي	-10.4803
▁cinema	-10.4805
▁एव	-10.4807
▁ਸਾ	-10.4808
एस	-10.4812
தை	-10.4813
abi	-10.4814
▁crow	-10.4817
▁samaan	-10.4819
▁سندس	-10.4822
▁kavi	-10.4823
76	-10.4823
▁jatiya	-10.4823
▁gola	-10.4826
ൺ	-10.4828
vid	-10.4836
▁nang	-10.4836
ড়া	-10.4837
▁song	-10.4838
▁sura	-10.4839
▁banaun	-10.4841
▁darj	-10.4846
thai	-10.4848
▁ᱟᱜ	-10.4848
▁khaali	-10.4849
▁oxomor	-10.4852
nth	-10.4853
▁roj	-10.4854
▁vik	-10.4855
ेक	-10.4855
রো	-10.4856
▁ہوتا	-10.4856
▁mk	-10.4858
▁लाख	-10.4859
waar	-10.486
खे	-10.4861
▁kharch	-10.4861
▁nagara	-10.4862
▁ser	-10.4864
యం	-10.4864
اري	-10.4864
▁jou	-10.4869
▁মী	-10.4869
▁daha	-10.4873
வா	-10.4873
▁gat	-10.4873
▁আগ	-10.4875
▁abhinay	-10.4878
ush	-10.4881
▁nunw	-10.4885
kumar	-10.4886
▁পর	-10.4888
nge	-10.489
▁mangal	-10.4891
▁pranali	-10.4893
maya	-10.4894
গত	-10.4895
বার	-10.4896
▁choo	-10.4896
▁करी	-10.4897
▁pahale	-10.4898
ipp	-10.4898
fñt	-10.4899
ವಾದ	-10.4901
ᱬ	-10.4901
▁naahin	-10.4905
र्ण	-10.4905
તિ	-10.4906
▁اسے	-10.4907
ાઈ	-10.4907
bare	-10.4908
▁maajot	-10.4908
▁sukh	-10.4908
▁aarambh	-10.4908
કર	-10.4911
▁foj	-10.4914
▁medical	-10.4915
ਨੇ	-10.4915
ಪ್	-10.4917
amaayi	-10.492
▁oti	-10.492
▁prodhan	-10.4922
▁دے	-10.4923
रू	-10.4924
▁awaam	-10.4927
▁bixex	-10.493
وم	-10.4932
▁മാ	-10.4933
jin	-10.4933
وان	-10.4935
ন্না	-10.4938
▁rung	-10.4939
▁odhik	-10.4942
▁prokax	-10.4942
ভি	-10.4944
▁umar	-10.4947
کار	-10.4949
شی	-10.4951
ब्ला	-10.4953
▁paari	-10.4953
సు	-10.4953
▁गरेको	-10.4953
ਸੀ	-10.4954
▁ಕೊ	-10.4955
ंदा	-10.4956
▁keunkah	-10.4959
avya	-10.4959
▁uporot	-10.4959
▁rasa	-10.496
▁kami	-10.4962
▁fgfx	-10.4962
▁kru	-10.4964
▁कें	-10.4965
▁ದ	-10.4965
▁naalo	-10.4966
चि	-10.4966
ngku	-10.4966
▁mid	-10.4966
▁नाही	-10.4966
ege	-10.4967
▁khai	-10.4968
▁34	-10.4969
▁dene	-10.4969
▁honn	-10.4972
ണം	-10.4973
ket	-10.4976
▁krishna	-10.4977
ുന്നു	-10.4978
▁uchit	-10.4978
mor	-10.4978
▁jameen	-10.498
hoon	-10.4981
▁bhaeka	-10.4983
▁kaafi	-10.4985
▁poori	-10.499
▁oa	-10.4992
ରୀ	-10.4994
88	-10.4994
▁vividha	-10.4994
చి	-10.4996
98	-10.4996
kata	-10.4999
▁मध्य	-10.5001
▁ᱡᱤ	-10.5001
aala	-10.5002
▁nirdesh	-10.5003
▁जीवन	-10.5006
▁ken	-10.5007
▁bola	-10.5007
ంత	-10.5008
▁aami	-10.5009
▁bhanda	-10.501
▁pitaa	-10.5012
ಡೆ	-10.5012
▁majh	-10.5012
▁saman	-10.5013
ٚ	-10.5013
▁بند	-10.5014
▁चड	-10.5019
وب	-10.502
▁saamney	-10.502
▁bandh	-10.5021
र्ज	-10.5021
▁miru	-10.5022
▁જો	-10.5022
▁nue	-10.5023
paryant	-10.5024
▁শিক্ষা	-10.5024
▁anta	-10.5025
▁mrutyu	-10.5025
ುವುದು	-10.5027
▁krama	-10.5028
▁oxomiya	-10.5029
karana	-10.5029
▁munn	-10.5029
▁musliman	-10.5031
▁fara	-10.5033
edi	-10.5033
ुर	-10.5034
تہ	-10.5034
ांचे	-10.5034
▁prograam	-10.5036
فت	-10.5036
▁dhaa	-10.5038
inchi	-10.5038
ख्	-10.504
▁ub	-10.5044
भि	-10.5045
یشن	-10.5046
▁समिति	-10.5049
bhe	-10.505
ibo	-10.505
vant	-10.5051
▁niyantran	-10.5053
▁কোনো	-10.5053
▁jang	-10.5054
▁laina	-10.5057
▁असे	-10.5058
dhor	-10.5059
▁तीन	-10.506
gw	-10.5061
▁مي	-10.5062
▁sma	-10.5063
roop	-10.5063
▁mudi	-10.5065
▁ḍfo	-10.5065
ᱫᱤ	-10.5065
athinu	-10.5065
alo	-10.5069
isil	-10.507
▁৪	-10.5075
▁நா	-10.5077
▁swasthya	-10.508
▁asl	-10.5081
▁नगर	-10.5083
টে	-10.5087
▁ᱠᱮ	-10.5088
களில்	-10.5088
▁বহু	-10.5094
੍ਰ	-10.5095
▁কু	-10.5096
thinte	-10.5097
▁una	-10.5101
rika	-10.5102
yk	-10.5102
alum	-10.5103
▁ᱠᱟᱹᱢᱤ	-10.5103
69	-10.5104
jukto	-10.5105
▁karma	-10.5106
▁maadi	-10.5107
▁fal	-10.5111
trik	-10.5112
▁ᱵᱟᱝ	-10.5112
श्च	-10.5112
▁pol	-10.5114
▁anna	-10.512
rakapa	-10.5121
▁sila	-10.5123
ḍṭhf	-10.5125
oti	-10.5125
हे	-10.5126
vali	-10.5127
ichi	-10.5129
▁పా	-10.513
▁dila	-10.513
▁hy	-10.5133
▁fir	-10.5133
सँग	-10.5134
ঙা	-10.5134
▁دن	-10.5135
ପା	-10.5143
▁پاس	-10.5143
nara	-10.5143
▁dhori	-10.5143
▁kab	-10.5144
னி	-10.5147
oz	-10.515
▁kazhi	-10.5152
زی	-10.5153
jaa	-10.5153
bol	-10.5154
▁سک	-10.5154
dia	-10.5154
qat	-10.5155
▁namaz	-10.5155
▁sey	-10.5157
harulai	-10.5159
▁pravesh	-10.516
goraki	-10.5161
▁होती	-10.5161
ৱে	-10.5162
▁japan	-10.5165
▁meeri	-10.5168
ّ	-10.5169
یٹ	-10.5171
▁మా	-10.5176
▁lekin	-10.5182
▁KK	-10.5182
व्य	-10.5183
has	-10.5187
cṣf	-10.5187
▁leeg	-10.5187
▁samooh	-10.519
uti	-10.519
▁kalaa	-10.5191
nne	-10.5191
ियै	-10.5194
꯲	-10.5195
िन	-10.5199
▁dill	-10.52
ꯞ	-10.52
ꯥ	-10.5202
▁gwsw	-10.5204
▁yuva	-10.5207
eyalli	-10.5208
istan	-10.5209
क्त	-10.5211
▁bochor	-10.5211
पे	-10.5211
▁gpyk	-10.5213
chhe	-10.5213
▁kull	-10.5217
ମ୍	-10.522
▁samanya	-10.522
▁ਜਿਸ	-10.5223
▁pasot	-10.5227
▁tenaa	-10.5231
▁hyderabad	-10.5231
▁qam	-10.5231
iyem	-10.5232
▁briddhi	-10.5233
darshan	-10.5235
▁baaray	-10.5242
کو	-10.5243
▁چل	-10.5246
▁aisi	-10.5247
kaal	-10.5248
▁মহা	-10.5248
▁mug	-10.5249
▁تہِ	-10.5249
ત્ર	-10.5252
jir	-10.5253
▁ftif	-10.5254
ంద	-10.5255
धार	-10.5255
▁nattraga	-10.5256
ತು	-10.5256
▁گھر	-10.5258
▁pay	-10.526
▁ityadi	-10.526
▁padha	-10.5262
▁हु	-10.5263
ावर	-10.5263
fñj	-10.5264
▁sinh	-10.5264
▁sem	-10.5265
▁جاتا	-10.5269
▁kamma	-10.5271
aam	-10.5273
ꯀ	-10.5274
لم	-10.5275
vaada	-10.5276
ंस	-10.5278
▁ug	-10.5278
రీ	-10.5279
nchya	-10.5281
▁পরি	-10.5281
▁nasi	-10.5285
▁hwyw	-10.5285
▁kul	-10.5286
gri	-10.5287
adhik	-10.5288
शु	-10.5289
▁વા	-10.5291
▁ठ	-10.5292
ந	-10.5293
▁mobile	-10.5293
্ম	-10.5294
꯶	-10.5296
▁ᱧᱩᱛᱩᱢ	-10.5298
વામાં	-10.5298
ായി	-10.5301
▁করেন	-10.5301
▁swrkar	-10.5301
eyannu	-10.5302
▁riha	-10.5307
ન્	-10.5309
▁vot	-10.531
▁टि	-10.5312
charya	-10.5312
▁badhi	-10.5313
▁waps	-10.5315
yoo	-10.5318
▁ꯄꯥ	-10.5319
▁prodan	-10.5319
yala	-10.5324
கா	-10.5326
▁लेल	-10.5328
▁saorai	-10.5329
agala	-10.5331
▁purvan	-10.5331
vir	-10.5331
ులు	-10.5332
్యా	-10.5334
tum	-10.5336
▁aala	-10.5336
▁ಶ	-10.5338
eey	-10.534
;	-10.5342
थाइ	-10.5344
▁fgfrf	-10.5345
yachya	-10.5347
▁maka	-10.5348
▁baan	-10.5348
স্থ	-10.5351
▁tarikh	-10.5351
ect	-10.5352
kkho	-10.5354
86	-10.5355
▁jadhan	-10.5355
▁shaala	-10.5356
▁ux	-10.5359
ꯥꯢ	-10.536
▁sod	-10.5365
▁୨	-10.5367
▁sanna	-10.5367
▁थ	-10.5369
sir	-10.5369
tem	-10.537
▁ନି	-10.537
▁istemal	-10.5371
▁zaruri	-10.5373
यां	-10.5375
▁Mo	-10.5375
▁fat	-10.5376
ਈ	-10.5378
▁you	-10.5379
யின்	-10.538
ththi	-10.5381
ਅ	-10.5382
गार	-10.5384
goto	-10.5386
्यु	-10.5387
మా	-10.5388
▁sadharan	-10.5389
▁मी	-10.5389
▁him	-10.539
▁kriya	-10.5391
daan	-10.5391
ଦା	-10.5393
▁آباد	-10.5395
राम	-10.5395
▁kusai	-10.5397
▁वह	-10.5397
▁phhi	-10.5397
71	-10.5398
eli	-10.5399
▁ella	-10.54
ങ്ങ	-10.5401
কার	-10.5402
▁thanne	-10.5402
▁gaon	-10.5402
▁hogi	-10.5403
▁यु	-10.5403
asim	-10.5404
ઈ	-10.5405
ിലെ	-10.5406
▁hetu	-10.5407
▁ex	-10.5409
দ্ধ	-10.5409
▁চনৰ	-10.5414
dhon	-10.5415
▁दोन	-10.5416
▁samudra	-10.5418
म्ब	-10.5418
▁pach	-10.5419
राय	-10.5421
kaan	-10.5421
simna	-10.5423
▁ଉପ	-10.5424
▁सम्	-10.5425
ᱜᱤ	-10.5427
யாக	-10.5427
▁2004	-10.5429
▁way	-10.543
▁loko	-10.5432
▁ہوئی	-10.5434
▁विशेष	-10.5434
▁samaaj	-10.5434
ాన్ని	-10.5436
▁ء	-10.5436
▁taanem	-10.5439
,000	-10.5439
▁khata	-10.5441
yaana	-10.5442
▁bang	-10.5442
▁deegar	-10.5443
inchina	-10.5444
mari	-10.5447
tini	-10.5448
▁roo	-10.5451
▁जल	-10.5451
▁res	-10.5454
tvam	-10.5459
ਵਰ	-10.5459
cc	-10.546
tthai	-10.5463
▁जान	-10.5466
thaanu	-10.5466
▁pata	-10.5466
▁هي	-10.5467
ାର	-10.5468
▁ಹಾಗೂ	-10.5468
꯸	-10.5469
پور	-10.547
्न	-10.5472
kana	-10.5474
▁36	-10.5474
▁taaliya	-10.5474
र्थ	-10.5475
uh	-10.5475
ುತ್ತ	-10.5476
▁dala	-10.5477
▁dwlwni	-10.548
gram	-10.5481
انہ	-10.5481
▁modi	-10.5486
▁aapan	-10.549
▁चे	-10.5492
ম্বা	-10.5493
▁sabhi	-10.5494
▁नो	-10.5495
ত্তা	-10.5497
▁kye	-10.5497
94	-10.5498
▁ꯇ	-10.55
ancho	-10.5501
▁pore	-10.5501
▁ann	-10.5501
▁ᱱᱤ	-10.5502
▁kel	-10.5502
▁mutaliq	-10.5503
bli	-10.5503
▁konda	-10.5504
িয়ে	-10.5504
19	-10.5507
▁hamein	-10.5508
ಗ್	-10.5508
▁aarthik	-10.551
▁ಚ	-10.5511
▁moolam	-10.5511
▁ḍfñ	-10.5512
▁vidyut	-10.5513
▁পূ	-10.5514
రో	-10.5515
اک	-10.5517
▁utpadan	-10.5517
ಿತ	-10.5518
ses	-10.5521
▁संस्था	-10.5521
▁आज	-10.5525
▁jamaat	-10.5525
▁என	-10.5526
▁paris	-10.5527
▁ᱛᱟᱭᱚᱢ	-10.5527
▁ᱥᱟᱶ	-10.553
▁হিচাপে	-10.553
▁yau	-10.553
▁zabaan	-10.5533
ٺ	-10.5534
▁थमां	-10.5535
▁loyanana	-10.5538
ಿದ್ದ	-10.5539
vay	-10.5542
فی	-10.5543
▁soch	-10.5544
▁हुन्छ	-10.5545
▁रां	-10.5547
▁jay	-10.5549
▁anga	-10.5553
▁mir	-10.5553
▁national	-10.5554
ভাবে	-10.5554
चित	-10.5555
▁saah	-10.5556
▁लानानै	-10.5557
▁amasung	-10.5558
rey	-10.5559
lika	-10.5561
▁ᱛᱤ	-10.5561
▁hel	-10.557
▁bos	-10.557
sf	-10.5572
ব্	-10.5573
▁بدل	-10.5574
▁karke	-10.5574
▁gum	-10.5575
▁త	-10.5576
दान	-10.5577
▁عام	-10.5578
ಜಿ	-10.5579
atmak	-10.5581
ᱮᱫ	-10.5581
▁saaf	-10.5581
द्द	-10.5583
▁aadare	-10.5586
▁હતી	-10.5587
▁अप	-10.5587
▁fr	-10.5588
ತಾ	-10.5588
▁મો	-10.559
▁ఏ	-10.5592
▁pahuncha	-10.5592
ଁ	-10.5593
▁sangathan	-10.5595
▁haat	-10.5595
▁sii	-10.5596
rito	-10.5596
ുവ	-10.5597
▁pramaan	-10.5599
▁jit	-10.56
ட்டி	-10.5601
▁ᱞᱮᱠᱷᱟ	-10.5603
ത്തിന്റെ	-10.5603
91	-10.5603
▁Ma	-10.5606
िंग	-10.5607
꯹	-10.5609
▁seiya	-10.5609
▁ranga	-10.5614
ઠ	-10.5614
सम्म	-10.5614
ikku	-10.5615
▁अपनी	-10.5616
udi	-10.5616
▁saare	-10.5617
▁yanni	-10.5618
▁shaam	-10.5618
▁vijay	-10.5618
wng	-10.5618
▁hotay	-10.5619
▁স্	-10.5621
ंदे	-10.5621
▁aay	-10.5622
▁sandh	-10.5626
kg	-10.5626
ప్	-10.5631
▁᱓	-10.5632
▁kimba	-10.5632
▁utpaadan	-10.5632
84	-10.5634
▁aabaad	-10.5636
int	-10.5637
▁প্রতি	-10.564
amal	-10.564
▁jis	-10.564
▁দেখা	-10.5641
ᱠᱷ	-10.5645
▁kis	-10.5645
▁भेल	-10.5645
kunda	-10.5647
▁pakistani	-10.5648
▁shareef	-10.5648
▁moola	-10.5649
▁होनाय	-10.5649
কো	-10.5651
▁ᱟᱡ	-10.5656
iax	-10.5658
ાઇ	-10.5659
लिया	-10.5659
▁haseen	-10.566
▁dabi	-10.566
▁maarch	-10.5661
kul	-10.5661
த்தி	-10.5664
▁ਆਪਣੇ	-10.5665
ste	-10.5673
▁मत	-10.5673
run	-10.5673
▁santi	-10.5674
ᱭᱮ	-10.5676
▁કા	-10.5677
பா	-10.5679
mananka	-10.5682
ार्थ	-10.5683
▁कह	-10.5685
▁dain	-10.5686
▁लो	-10.5686
ive	-10.5687
▁vaad	-10.5687
▁ਮਾ	-10.5687
ancha	-10.5687
ेट	-10.5693
য	-10.5695
▁deeh	-10.5696
మైన	-10.5698
▁जाने	-10.5698
லா	-10.5699
▁jaar	-10.5699
മി	-10.5703
ngxo	-10.5703
▁ড	-10.5704
mantri	-10.5704
२	-10.5705
पु	-10.5708
▁sangrah	-10.5708
▁اسی	-10.5709
▁hasala	-10.571
▁shreni	-10.5711
ରୋ	-10.5711
▁maza	-10.5712
▁jod	-10.5713
lyaa	-10.5713
▁korona	-10.5714
यं	-10.5714
▁out	-10.5719
ਤਰ	-10.5719
୭	-10.5722
ണി	-10.5723
bee	-10.5725
▁yaqeen	-10.5726
▁gwdan	-10.5727
▁sira	-10.573
▁fwsao	-10.573
▁pon	-10.5731
▁fasal	-10.5731
▁samstha	-10.5732
▁avara	-10.5732
ৰৰ	-10.5733
വർ	-10.5733
تو	-10.5734
▁dekhen	-10.5734
हित	-10.5734
ाब	-10.5735
▁स्ट	-10.5735
▁ayen	-10.5737
നം	-10.5737
wali	-10.5738
▁ଜ	-10.5741
chaar	-10.5744
ಕ್ಕ	-10.5745
abahudu	-10.5745
ಂದ	-10.5746
▁ಮಾ	-10.5749
▁aavashyak	-10.5751
▁besi	-10.5751
▁कमी	-10.5752
▁naamor	-10.5752
न्स	-10.5754
▁vazhi	-10.5754
▁nonga	-10.5755
▁vidhi	-10.5759
▁pich	-10.5763
▁sham	-10.5763
▁पड	-10.5764
▁ସୁ	-10.5764
rid	-10.5764
▁aja	-10.5764
▁paka	-10.5764
▁karade	-10.5764
ꯗꯤ	-10.5765
ୂ	-10.5767
▁sarr	-10.5768
ूं	-10.5768
▁বু	-10.5769
▁bijepi	-10.5771
gali	-10.5772
▁singao	-10.5773
ाचो	-10.5773
ेत	-10.5773
▁sil	-10.5774
લ્	-10.5775
▁jananwi	-10.5775
▁ഫ	-10.5776
꯱	-10.5778
ଦେ	-10.578
▁hoiaa	-10.5783
▁थे	-10.5786
▁unhone	-10.5788
▁nak	-10.5789
▁কাম	-10.5789
▁yena	-10.579
▁badaa	-10.5793
▁sangeet	-10.5794
▁karada	-10.5795
▁sankraman	-10.5795
▁taha	-10.5796
▁ஏ	-10.5797
ண்	-10.5798
ক্স	-10.5798
ാന	-10.5799
▁swo	-10.5802
pti	-10.5803
▁siddha	-10.5805
ꯌꯥ	-10.5807
꯳	-10.581
fḍh	-10.5811
▁wan	-10.5812
ତ୍	-10.5815
▁lfifd	-10.5816
chara	-10.5816
बर	-10.5817
▁lekhak	-10.5818
▁ಕಾ	-10.5819
vp	-10.5823
▁১	-10.5828
▁fñ	-10.5828
▁অমা	-10.5831
▁khut	-10.5831
▁pratinidhi	-10.5833
یب	-10.5833
ুৱা	-10.5833
▁lagu	-10.5834
rani	-10.5834
▁taleem	-10.5835
mur	-10.5835
▁niti	-10.5835
▁pradarshan	-10.5839
▁varu	-10.584
ಲ್ಲಿ	-10.584
▁সো	-10.584
▁بد	-10.5843
اڻي	-10.5846
ಿನ	-10.5847
▁sthaniya	-10.5848
▁luoun	-10.5849
vrutti	-10.5851
amaaya	-10.5853
▁tawa	-10.5853
▁uifx	-10.5853
કાર	-10.5854
▁shabd	-10.5857
ꯟꯅ	-10.5857
sabhak	-10.5858
▁ഹ	-10.5859
گی	-10.586
▁ഒ	-10.5861
यः	-10.5861
▁rok	-10.5862
▁shiv	-10.5864
▁ڊ	-10.5867
aonw	-10.5869
▁টি	-10.587
▁கி	-10.5873
ᱵᱚ	-10.5874
হু	-10.5874
▁ਇਕ	-10.5876
▁kichhu	-10.5876
ਹਾ	-10.5878
गि	-10.588
▁പാ	-10.5881
▁ബ	-10.5883
کس	-10.5885
▁ढ	-10.5886
▁બે	-10.5887
ত্ব	-10.5888
▁ins	-10.5889
ભ	-10.5889
wai	-10.589
▁आग	-10.589
▁zahir	-10.5892
▁ꯃꯤ	-10.5897
ಣೆ	-10.5899
kko	-10.59
des	-10.59
96	-10.5901
ᱴᱮ	-10.5903
▁aurat	-10.5904
▁rupaye	-10.5904
▁इन्	-10.5904
pata	-10.5906
▁matama	-10.5906
▁शहर	-10.5907
▁होननानै	-10.5907
sion	-10.5907
ppadu	-10.5909
ᱫᱚ	-10.5909
▁لوگوں	-10.591
▁gata	-10.5911
ष्	-10.5912
క్ష	-10.5912
deep	-10.5914
▁پور	-10.5914
ాడు	-10.5916
▁das	-10.5917
▁yak	-10.5918
▁सभा	-10.5919
13	-10.5919
▁તો	-10.592
roi	-10.592
▁cat	-10.592
antu	-10.5922
ੰਡ	-10.5923
hh	-10.5923
વે	-10.5924
tive	-10.5926
▁hwnw	-10.5926
▁ನೀಡ	-10.5927
▁muth	-10.5928
▁khul	-10.5931
▁kilo	-10.5932
▁علی	-10.5936
ाला	-10.5936
റ്റ്	-10.5937
▁maz	-10.5937
▁behtar	-10.5937
chim	-10.5941
01	-10.5944
ଥାଏ	-10.5945
phi	-10.5945
khonor	-10.5948
ಚಿ	-10.5949
▁এখন	-10.5951
ghi	-10.5951
न्ति	-10.5952
व्या	-10.5957
▁mos	-10.5958
hak	-10.5959
र्स	-10.5959
yant	-10.596
▁sristi	-10.5961
▁all	-10.5962
vada	-10.597
▁வா	-10.5972
▁وي	-10.5975
▁ralli	-10.5975
▁ᱦᱩᱭ	-10.5976
▁ᱧᱟᱢ	-10.5976
gari	-10.5978
▁६	-10.598
winw	-10.5981
yoon	-10.5985
ꯕꯥ	-10.5985
▁ghu	-10.5986
▁पानी	-10.5988
▁ᱦᱩᱭᱩᱜ	-10.599
ippu	-10.5992
▁لو	-10.5993
▁گھ	-10.5995
▁फो	-10.5995
sama	-10.5995
▁ك	-10.5996
▁madhyare	-10.5996
▁aale	-10.5997
25	-10.6
lp	-10.6
▁അവ	-10.6001
▁ਉਨ੍ਹਾਂ	-10.6005
ದೆ	-10.6008
▁കു	-10.601
vaad	-10.601
luk	-10.6011
▁जब	-10.6013
ಗಿ	-10.6014
hun	-10.6016
▁huwar	-10.6018
artha	-10.6018
▁lfvyfj	-10.602
▁48	-10.602
▁nirnay	-10.602
sali	-10.6021
▁jamda	-10.6022
جی	-10.6023
▁କା	-10.6023
▁tauba	-10.6023
▁sadar	-10.6024
▁debi	-10.6026
▁aandu	-10.6028
▁दिया	-10.6028
▁aaney	-10.6029
▁ᱠᱚᱣᱟ	-10.603
jen	-10.6033
▁دوران	-10.6034
▁doh	-10.6038
▁थी	-10.6038
▁karaa	-10.6038
ക്കാ	-10.6043
▁mwjang	-10.6045
ಿದ್ದಾರೆ	-10.6045
▁᱖	-10.6052
▁shiva	-10.6053
با	-10.6054
খা	-10.6059
ଇ	-10.6059
ದಾ	-10.6059
▁eurf	-10.606
టీ	-10.6062
▁record	-10.6063
▁kathaa	-10.6065
وف	-10.6066
▁करा	-10.6067
18	-10.6069
ᱯᱷ	-10.6069
िय	-10.6069
bṭh	-10.6069
▁uyar	-10.607
▁rakhaa	-10.6071
▁ghal	-10.6075
▁saat	-10.6075
▁qab	-10.6076
াম	-10.6078
ল্ল	-10.608
▁matamda	-10.608
▁یو	-10.6084
bhya	-10.6084
ژ	-10.6087
ండ	-10.6087
▁hwdwng	-10.6087
kruta	-10.6087
▁chak	-10.6089
▁uj	-10.609
▁keela	-10.6093
▁bima	-10.6094
তী	-10.6096
ಿಕ	-10.6098
▁1000	-10.61
▁safar	-10.61
▁ಭ	-10.6101
poathu	-10.6102
aagum	-10.6105
▁roja	-10.6105
▁रहेको	-10.6108
▁ghotona	-10.6108
க்கும்	-10.6109
87	-10.6111
▁tok	-10.6113
iyin	-10.6113
▁adhikaar	-10.6119
اؤ	-10.612
ുന്നത്	-10.612
णार	-10.6123
▁एम	-10.6124
▁மா	-10.6127
▁sudhee	-10.6129
ᱢᱟᱱ	-10.6131
▁samein	-10.6131
दो	-10.6134
دو	-10.6134
zam	-10.6135
▁ata	-10.6136
▁जां	-10.6136
▁samayare	-10.6136
▁wor	-10.6137
▁kaela	-10.6139
▁katha	-10.6141
ꯪ	-10.6141
tala	-10.6142
اری	-10.6143
ਡੀ	-10.6144
▁پي	-10.6144
दु	-10.6145
▁پیٹھ	-10.6145
ंट	-10.6146
ेश	-10.6147
مت	-10.6149
26	-10.615
ക്കു	-10.615
جر	-10.6151
▁send	-10.6151
llu	-10.6151
▁padey	-10.6154
▁moko	-10.6154
▁ڪا	-10.6155
▁comm	-10.6155
▁deenay	-10.6155
ᱼᱟ	-10.6157
▁amasu	-10.6157
▁samba	-10.6164
▁jene	-10.6164
▁होनना	-10.6166
▁lat	-10.6169
▁ravi	-10.617
▁واري	-10.617
▁কৰিছে	-10.6171
یو	-10.6173
▁guzar	-10.6174
thir	-10.6174
पछि	-10.6179
kir	-10.6179
17	-10.6181
वाह	-10.6186
▁ادا	-10.6187
galukku	-10.6188
ᱜᱮ	-10.619
▁aastaa	-10.6191
▁trans	-10.6191
▁ᱮᱞ	-10.6193
▁ভি	-10.6194
ବେ	-10.6195
ଜି	-10.6196
رت	-10.6198
▁xixu	-10.62
▁murai	-10.6204
▁प्रमुख	-10.6205
60	-10.6206
▁lab	-10.6207
▁লাই	-10.6209
నా	-10.6209
▁جنگ	-10.621
▁مت	-10.6211
lea	-10.6211
andar	-10.6212
▁आधार	-10.6212
नै	-10.6213
▁varshe	-10.6216
▁prathi	-10.6218
▁چھئ	-10.6219
ᱠᱷᱟ	-10.6219
82	-10.6219
नाथ	-10.6221
▁gṭhfx	-10.6222
▁sansad	-10.6223
ittu	-10.6224
ाउ	-10.6227
ꯃꯤ	-10.6227
ন্ড	-10.6228
▁stree	-10.6229
▁సం	-10.6229
ద్	-10.623
shad	-10.6232
▁ஒ	-10.6233
ngalude	-10.6234
▁tarqi	-10.6235
▁itara	-10.6236
▁gwkrwng	-10.6237
꯴	-10.6239
▁gaan	-10.624
▁व्यक्ति	-10.624
ᱚᱱ	-10.6241
▁رہ	-10.6241
▁sevaa	-10.6245
▁upor	-10.6246
▁sampada	-10.6246
ಣ್ಣ	-10.6248
▁दक्षिण	-10.6249
▁மு	-10.625
▁rakkh	-10.6251
ਸਤ	-10.6251
खां	-10.6253
▁Go	-10.6253
▁kaaron	-10.6254
▁इतिहास	-10.6254
▁ḍp	-10.6255
▁adubu	-10.6256
konda	-10.6257
▁jeesay	-10.6257
▁udyog	-10.6258
ंब	-10.6258
▁lekha	-10.6258
▁manas	-10.6258
▁jayein	-10.6259
▁gṭhf	-10.6259
▁ডা	-10.6259
िता	-10.6259
নু	-10.6259
ಶ್	-10.6259
▁lain	-10.6259
ଣି	-10.626
ಾದ	-10.6263
▁भू	-10.6263
89	-10.6264
▁nantara	-10.6264
▁sadee	-10.6265
ਯ	-10.6266
যুক্ত	-10.6266
wn	-10.6267
▁club	-10.6268
ary	-10.6268
▁lpo	-10.6269
▁ᱛᱟᱦᱮᱸᱫ	-10.6269
▁ten	-10.627
▁saadh	-10.627
ramba	-10.6272
tter	-10.6274
▁comp	-10.6275
કો	-10.6278
▁nil	-10.6279
▁परस	-10.628
▁tim	-10.628
▁রা	-10.6283
▁jono	-10.6283
▁وجہ	-10.6283
ifx	-10.6285
▁অসম	-10.6286
्रो	-10.6288
▁લોકો	-10.629
▁masidagi	-10.6291
▁मात्र	-10.6292
থা	-10.6295
لے	-10.6296
▁bhaav	-10.6298
▁bungw	-10.63
ppada	-10.63
▁sarv	-10.6305
▁টে	-10.6306
யி	-10.6306
▁pya	-10.6306
పై	-10.6307
▁phala	-10.6308
यान	-10.6308
▁mukkh	-10.6309
▁achhe	-10.6309
ுவ	-10.631
پر	-10.6311
▁چُھ	-10.6311
▁makase	-10.6312
ड़ा	-10.6314
97	-10.6314
▁assembly	-10.6315
▁کس	-10.6317
ସ୍ତ	-10.6318
ਠ	-10.632
꯫	-10.6321
फ़	-10.6321
▁kava	-10.6322
V	-10.6324
▁ڇ	-10.6325
▁ᱜᱚᱴᱟᱝ	-10.6325
▁ꯁꯥ	-10.6329
ڪر	-10.6329
ᱤᱡ	-10.6334
▁chet	-10.6336
blabw	-10.6336
▁takh	-10.6337
کے	-10.6337
ੱਤ	-10.6339
▁baday	-10.634
▁স্ব	-10.634
▁نه	-10.6342
▁fail	-10.6343
▁bhet	-10.6343
ಮ್	-10.6344
▁ib	-10.6346
▁போ	-10.6346
mul	-10.6347
▁kosh	-10.6347
न्ड	-10.6347
maayi	-10.6353
▁tankam	-10.6353
▁raakh	-10.6354
സ്റ്റ	-10.6355
▁adhar	-10.6355
▁shara	-10.6357
teh	-10.6358
▁bijati	-10.6359
▁honaa	-10.6359
ଗା	-10.6361
▁yethe	-10.6361
દી	-10.6362
▁vak	-10.6364
▁रहे	-10.6366
gudika	-10.6366
▁1990	-10.6367
कल	-10.6367
▁ನಾ	-10.6367
هر	-10.637
lil	-10.637
▁आम	-10.6377
stan	-10.6378
▁দিয়া	-10.6379
▁shayer	-10.638
ट्ट	-10.6382
▁sooch	-10.6382
▁உள்ள	-10.6389
▁যি	-10.6389
▁abad	-10.639
▁jail	-10.6391
▁अब	-10.6392
▁baahir	-10.6392
স্ক	-10.6395
ைய	-10.6395
shastra	-10.6395
▁अभि	-10.6396
ੀਆ	-10.6397
▁satah	-10.6402
▁maat	-10.6404
▁khed	-10.6405
dad	-10.6406
▁دنیا	-10.6408
▁প্ৰথম	-10.6409
▁সম্	-10.6411
▁sahaj	-10.6411
tfc	-10.6413
▁mhanoon	-10.6414
lal	-10.6417
▁katta	-10.6418
ees	-10.642
▁sif	-10.6421
▁foraisa	-10.6421
ੁੱ	-10.6421
▁vach	-10.6423
▁ꯑꯦ	-10.6425
▁આવેલા	-10.6425
▁haujika	-10.6426
सभ	-10.6427
▁pati	-10.6429
kalude	-10.6429
▁shabda	-10.6436
▁upare	-10.6437
▁ਦੀਆਂ	-10.6437
▁disaa	-10.6444
▁wo	-10.6445
▁કો	-10.6445
▁mahatva	-10.6446
▁bharot	-10.6448
▁ofhḷ	-10.6449
krut	-10.645
▁mediya	-10.6451
▁saktay	-10.6451
kalai	-10.6452
▁asoon	-10.6453
nkara	-10.6453
▁ᱜᱩ	-10.6453
▁mukti	-10.6454
▁ᱞᱮᱠᱟ	-10.6457
▁duaara	-10.6458
▁pade	-10.6459
▁হবে	-10.6461
▁eng	-10.6462
▁sahita	-10.6462
▁unko	-10.6462
▁شخص	-10.6463
▁kesa	-10.6463
▁gambhir	-10.6466
wani	-10.6467
▁aine	-10.6469
▁fw	-10.6471
▁basumatary	-10.6472
ight	-10.6474
▁ther	-10.6476
▁stri	-10.6478
ভাৱে	-10.6481
▁habapari	-10.6482
aki	-10.6483
▁sobha	-10.6486
▁म्ह	-10.6487
▁bhasa	-10.6491
▁ᱠᱤ	-10.6491
dekhi	-10.6493
▁గ్రామం	-10.6493
ట్ట	-10.6493
▁قوم	-10.6494
▁ank	-10.6494
स्क	-10.6497
▁କାର୍ଯ୍ୟ	-10.6498
▁upalabdha	-10.6498
▁বিশেষ	-10.6498
ṭa	-10.6498
ন্	-10.6499
ाल	-10.65
▁fan	-10.6501
line	-10.6505
▁kayee	-10.6506
▁athu	-10.6507
▁phul	-10.6507
▁paay	-10.6508
▁ghanta	-10.6508
▁neeche	-10.6511
▁dile	-10.6512
▁مے	-10.6512
▁narayan	-10.6513
▁bandha	-10.6513
▁jad	-10.6514
▁vṭhkei	-10.6516
▁kx	-10.6516
▁samma	-10.6517
dhaar	-10.6517
భ	-10.6518
▁tur	-10.6518
▁devi	-10.6519
اج	-10.652
வே	-10.6521
▁jaiga	-10.6524
-	-10.6525
ଶି	-10.6526
▁paarti	-10.6529
▁anie	-10.653
▁prashna	-10.6531
▁دار	-10.6532
▁theen	-10.6533
patti	-10.6535
sis	-10.6537
▁numit	-10.6537
▁کٔر	-10.6542
ꯥꯏ	-10.6544
▁آج	-10.6545
▁ethir	-10.6546
పా	-10.6547
▁સુ	-10.655
▁tap	-10.6551
▁अधिकार	-10.6551
▁jaae	-10.6553
▁আই	-10.6553
▁سي	-10.6555
▁sid	-10.6555
basi	-10.6555
ṭu	-10.6555
ندڙ	-10.6555
▁aga	-10.6556
સ્ટ	-10.6557
▁angrezi	-10.6557
▁ધ	-10.6557
ਨਾਂ	-10.6557
▁nijor	-10.6558
79	-10.656
angkal	-10.6563
▁lueur	-10.6564
▁ashem	-10.6565
▁करता	-10.6565
▁ସମ୍	-10.6567
▁prabhav	-10.6567
ilo	-10.6568
▁bataya	-10.6568
vasa	-10.657
▁nirvah	-10.6571
ञ्च	-10.6571
▁hein	-10.6571
▁रहल	-10.6571
▁വാ	-10.6573
khal	-10.6575
▁ᱡᱩ	-10.6576
▁gaaon	-10.6578
▁inhee	-10.658
▁hayabasi	-10.6582
ꯊ	-10.6582
▁hadd	-10.6583
▁beach	-10.6585
▁تی	-10.6587
▁swayam	-10.6587
▁रख	-10.6588
ᱯᱚ	-10.659
▁poraisali	-10.6594
▁tatt	-10.6594
▁royeche	-10.6595
▁بل	-10.6596
▁ninnu	-10.6597
▁pet	-10.6597
கள	-10.6598
নো	-10.6598
▁poor	-10.6599
bba	-10.6599
▁france	-10.6601
▁nohoy	-10.6603
▁badibla	-10.6604
▁sandarbh	-10.6606
▁৷	-10.6606
▁khand	-10.6608
▁bann	-10.661
avaada	-10.661
ଛନ୍ତି	-10.6611
▁कृत	-10.6612
▁com	-10.6612
▁sigang	-10.6613
▁kodu	-10.6614
ṭṭh	-10.6614
▁aapni	-10.6614
▁फि	-10.6615
40	-10.6615
aun	-10.6616
▁૧	-10.6619
stri	-10.662
▁जानकारी	-10.662
▁bfef	-10.6621
kum	-10.6626
▁math	-10.6627
▁video	-10.6627
▁iyak	-10.6631
bhai	-10.6631
▁सासे	-10.6632
▁وی	-10.6634
▁neeru	-10.6636
pun	-10.6638
▁nawaz	-10.6639
▁शिक्षा	-10.6639
ikkunnu	-10.664
বনি	-10.6643
anaam	-10.6644
वास	-10.6653
▁vaari	-10.6653
ntu	-10.6654
यन	-10.6655
▁नेपालक	-10.6655
fwr	-10.6657
▁ena	-10.6657
▁dham	-10.6657
▁garda	-10.6658
سي	-10.6658
▁edu	-10.6658
▁khoj	-10.6659
▁kunai	-10.666
▁ling	-10.666
▁indian	-10.6663
▁केले	-10.6664
బ	-10.6664
▁jona	-10.6664
▁رہی	-10.6666
ꯌ	-10.6666
ন্স	-10.6672
/	-10.6673
▁37	-10.6674
▁ଶ	-10.6674
▁ശ	-10.6674
▁साहित्य	-10.6676
▁mwndwng	-10.6677
शास्त्र	-10.6677
▁চু	-10.6678
▁गए	-10.6679
▁eda	-10.6679
▁abhyas	-10.6681
▁shaka	-10.6685
▁ᱜ	-10.6693
▁karnyat	-10.6693
▁unch	-10.6694
gana	-10.6695
▁ಸು	-10.6697
▁कार्यक्रम	-10.6698
िर	-10.6699
▁map	-10.67
▁bangladesh	-10.6701
▁علم	-10.6701
las	-10.6702
▁bangal	-10.6704
▁phe	-10.6705
▁साम	-10.6706
▁janw	-10.6706
▁lakshan	-10.6707
▁उत्पादन	-10.6709
ಯ್	-10.6709
▁ola	-10.6711
હે	-10.6711
ସ୍ଥ	-10.6712
▁বৰ	-10.6713
▁बुं	-10.6716
▁thoda	-10.6716
ांक	-10.6717
▁afadni	-10.6717
▁ഗ	-10.6717
▁khetrot	-10.6719
▁lang	-10.6719
થ	-10.6721
▁వే	-10.6722
▁kiyon	-10.6722
▁ayem	-10.6725
gk	-10.6725
▁bhava	-10.6727
▁ପରେ	-10.6727
्स	-10.6728
ಾಯ	-10.6729
▁gwhw	-10.6729
রিবা	-10.673
▁yuu	-10.673
भाव	-10.673
ꯍ	-10.6731
▁match	-10.6731
▁haalat	-10.6732
▁beshi	-10.6732
▁kinn	-10.6733
▁ٿيو	-10.6734
▁ଇ	-10.6737
▁sambha	-10.6738
▁vila	-10.6739
▁કરવા	-10.674
▁jaanch	-10.6742
ندي	-10.6743
▁नव	-10.6746
cṭhf	-10.6746
▁sutt	-10.6747
▁sana	-10.6751
▁obhi	-10.6752
▁ᱡᱮ	-10.6755
लाइ	-10.6755
kkunna	-10.6755
▁tul	-10.6756
യോ	-10.6758
hati	-10.6759
▁ṭṭhfṅ	-10.676
▁bhog	-10.676
▁रूपमा	-10.6762
▁bhej	-10.6763
81	-10.6763
▁football	-10.6764
▁ehara	-10.6764
83	-10.6766
लं	-10.6766
▁nija	-10.6767
argal	-10.6767
▁px	-10.6768
▁deoa	-10.6769
▁ell	-10.6771
▁xot	-10.6774
▁lfṅbu	-10.6774
▁porr	-10.6776
▁कहा	-10.6777
▁samasta	-10.6778
▁taanka	-10.6778
pas	-10.6778
▁thaan	-10.678
ற்று	-10.6783
▁హ	-10.6784
▁बोसोर	-10.6786
▁एन	-10.6787
قا	-10.6787
▁khet	-10.6787
▁لے	-10.6787
▁করতে	-10.6788
نٹ	-10.6792
▁କରିଥିଲେ	-10.6792
▁बाल	-10.6792
▁کیلئے	-10.6793
▁آسمان	-10.6793
tthi	-10.6795
▁rahiyo	-10.6795
▁bhaya	-10.6796
▁bharotor	-10.6796
▁కూడా	-10.6796
jur	-10.6797
ुन	-10.6798
ମି	-10.6804
eb	-10.6806
पन	-10.6806
ಂಬ	-10.6808
বাৰ	-10.6808
▁اوس	-10.6809
فا	-10.6809
▁ukta	-10.6809
ev	-10.681
▁bill	-10.6811
▁emba	-10.6811
▁nis	-10.6814
▁pustak	-10.682
▁പോ	-10.6826
▁لوگ	-10.6826
▁hanja	-10.6827
▁hol	-10.6829
સા	-10.6829
ક્ષ	-10.6829
▁satha	-10.6829
▁ପ୍ରତି	-10.6831
koll	-10.6834
yok	-10.6834
ୀୟ	-10.6835
َن	-10.6836
▁ଉ	-10.6841
rok	-10.6842
ભા	-10.6843
ാർ	-10.6845
▁مختلف	-10.6846
▁आस्तै	-10.6847
▁aalim	-10.6848
▁paha	-10.6848
▁dus	-10.6851
ꯗꯥ	-10.6852
▁sahee	-10.6852
▁उनले	-10.6855
▁usi	-10.6856
▁kach	-10.6857
স্	-10.6858
▁lagg	-10.686
न्थ	-10.6863
▁dino	-10.6866
ലാ	-10.687
ांना	-10.6871
py	-10.6873
hiya	-10.6873
▁cfwf	-10.6874
ेषु	-10.6876
hoo	-10.688
▁weendo	-10.6883
▁shan	-10.6884
ज्	-10.6884
▁pashchim	-10.6884
▁qal	-10.6885
صل	-10.6886
▁থ	-10.6888
योजन	-10.6891
▁pratee	-10.6891
93	-10.6892
▁hata	-10.6892
▁karde	-10.6894
▁दिस	-10.6894
ld	-10.6898
▁kaaranam	-10.69
nyasathi	-10.6901
▁ദ	-10.6906
ithiba	-10.6907
▁55	-10.6907
▁khayaal	-10.6908
▁waq	-10.6909
ꯆ	-10.691
▁jaise	-10.691
▁vpo	-10.6912
09	-10.6914
▁قسم	-10.6921
ொ	-10.6922
▁ڪو	-10.6922
▁mati	-10.6923
rop	-10.6925
ithile	-10.6927
▁zarurat	-10.6928
वान्	-10.693
जित	-10.693
▁ଖ	-10.6932
▁bali	-10.6933
▁purva	-10.6937
▁സ്വ	-10.6938
▁faislah	-10.6939
ଭା	-10.6939
▁कुछ	-10.694
ꯣ	-10.6942
▁dukh	-10.6945
च्च	-10.6946
▁shri	-10.6946
ḍu	-10.6947
▁ਬਣ	-10.6947
etty	-10.6949
lakapa	-10.695
ngba	-10.6952
▁phaoba	-10.6952
▁చేయ	-10.6955
▁gaadi	-10.6955
ज्ञ	-10.6956
▁system	-10.6957
లకు	-10.6958
ರೂ	-10.6961
▁गर	-10.6962
▁రా	-10.6963
▁teo	-10.6964
▁ਨਿ	-10.6964
नांगौ	-10.6966
ipa	-10.6969
▁1980	-10.697
▁chuna	-10.6971
ٹا	-10.6971
▁ڪئي	-10.6972
ాలి	-10.6975
▁asta	-10.6976
ఖ	-10.6978
▁आदि	-10.6978
▁লি	-10.6978
▁स्थित	-10.6978
▁prot	-10.6979
ڈر	-10.6979
जु	-10.698
▁paih	-10.6981
▁uṭfc	-10.6981
▁asya	-10.6982
70	-10.6983
ગા	-10.6984
inda	-10.6984
kun	-10.6988
००	-10.6991
ମେ	-10.6992
gata	-10.6993
▁maulana	-10.6993
▁manipura	-10.6993
yut	-10.6995
ില	-10.6997
▁taiyar	-10.6998
▁ema	-10.7
▁संघ	-10.7
▁vil	-10.7001
▁దూరంలో	-10.7001
गर	-10.7002
▁জন্ম	-10.7002
▁vaat	-10.7003
୮	-10.7004
▁onek	-10.7005
▁bhat	-10.7005
प्	-10.7006
▁ಮು	-10.7008
▁praarambh	-10.7014
ted	-10.7014
▁غیر	-10.7016
ଡ଼	-10.7017
▁gam	-10.7018
▁poriman	-10.7018
▁tothyo	-10.7019
▁dwlw	-10.702
तम	-10.7021
75	-10.7021
sen	-10.7021
▁औ	-10.7022
▁gira	-10.7024
▁শিশু	-10.7024
▁ennu	-10.7025
▁kardi	-10.7026
▁joga	-10.703
▁dosri	-10.7032
چھ	-10.7032
ਕੀ	-10.7033
▁কৰিবলৈ	-10.7035
▁vagai	-10.7038
ꯝꯕ	-10.7038
▁जानाय	-10.704
ডি	-10.7041
ନେ	-10.7042
कारी	-10.7045
খে	-10.7045
▁potaan	-10.7046
▁سمجھ	-10.7046
doo	-10.7048
pto	-10.7048
▁जग	-10.7051
▁korile	-10.7053
▁समाव	-10.7058
▁Re	-10.7058
ਿੰਗ	-10.7058
િય	-10.706
ڄ	-10.706
▁బా	-10.7063
▁ayfc	-10.7063
▁jati	-10.7066
▁coone	-10.7067
▁unhein	-10.7067
uṭ	-10.7068
ટે	-10.707
জে	-10.7072
▁સ્	-10.7072
08	-10.7074
ಿದ	-10.7074
▁maang	-10.7076
▁`	-10.7079
muk	-10.7083
▁khur	-10.7084
kkaar	-10.7084
▁niid	-10.7086
▁gall	-10.7087
▁ol	-10.7087
▁ꯈ	-10.7088
▁बिसायख	-10.7089
رام	-10.7093
▁चार	-10.7096
▁ପରି	-10.7098
qf	-10.7098
▁2003	-10.7098
▁᱔	-10.7099
▁nije	-10.7101
▁सौ	-10.7101
▁fisa	-10.7102
▁moolaka	-10.7103
▁᱒᱐	-10.7104
কাল	-10.7105
▁ᱜᱮᱭᱟ	-10.7105
▁ਦਿ	-10.7109
▁Po	-10.7109
▁ꯍ	-10.7111
সকলৰ	-10.7111
▁praya	-10.7115
▁roman	-10.7115
▁مہ	-10.7116
▁pathi	-10.7118
▁joy	-10.7118
▁byo	-10.712
वेद	-10.7122
ളി	-10.7123
ப்பட்ட	-10.7124
inch	-10.7124
▁भि	-10.7124
▁farma	-10.7125
long	-10.7125
▁aayaa	-10.7125
▁rhaa	-10.7127
▁ghoshana	-10.7128
▁रायजो	-10.7128
taka	-10.7128
▁suraksha	-10.713
▁દ	-10.713
pee	-10.7131
▁hotee	-10.7131
▁বিশ্ব	-10.7132
▁কিছু	-10.7132
ruddh	-10.7132
▁प्रमाण	-10.7134
றை	-10.7134
▁செ	-10.7137
▁والی	-10.7141
مي	-10.7141
▁karwa	-10.7143
ؤ	-10.7143
▁ansaan	-10.7143
▁samjha	-10.7146
▁vella	-10.7146
▁dhaara	-10.7147
اض	-10.7151
▁मौ	-10.7153
▁عوام	-10.7153
પા	-10.7153
▁ubai	-10.7155
▁ele	-10.7155
shti	-10.7155
▁tenee	-10.7156
யான	-10.7156
াল	-10.7157
▁gkx	-10.7157
▁మరియు	-10.7159
▁રહે	-10.7159
▁jim	-10.716
80	-10.7166
▁kite	-10.717
વાર	-10.7171
simgi	-10.7173
▁ছ	-10.7174
ില്ല	-10.7175
▁khol	-10.7176
मन	-10.7178
▁ڪم	-10.7178
▁moqaa	-10.7179
▁انسان	-10.7179
▁egoraki	-10.7181
▁તા	-10.7183
த்தின்	-10.7183
ढ़	-10.7184
▁kardiya	-10.7185
agide	-10.7185
▁आइ	-10.7185
▁થાય	-10.7186
ंदी	-10.7186
▁qur	-10.7186
ddho	-10.7187
▁poli	-10.7188
▁jodiu	-10.7189
▁sampoorn	-10.7189
▁ander	-10.7189
dw	-10.7192
shish	-10.7192
তু	-10.7193
▁insani	-10.7197
నీ	-10.7197
▁গো	-10.7199
▁दूर	-10.7201
▁jabai	-10.7202
ട്ടി	-10.7202
ദ്	-10.7203
▁tanna	-10.7203
▁taree	-10.7204
▁yog	-10.7204
bid	-10.7205
▁millie	-10.7207
▁ৰাজ্য	-10.7207
ધા	-10.7208
கி	-10.7208
▁கோ	-10.7209
▁᱕	-10.7211
jor	-10.7212
▁design	-10.7213
ಿಯ	-10.7213
▁jat	-10.7213
ংগ	-10.7216
லாம்	-10.7217
▁seyal	-10.7218
▁ᱵᱮᱱᱟᱣ	-10.7219
▁akkh	-10.7219
▁bull	-10.722
▁2002	-10.722
▁kaama	-10.722
ngo	-10.7222
सिन	-10.7222
ದ್ದ	-10.7224
▁asar	-10.7226
▁cheising	-10.7227
▁धा	-10.7227
▁ree	-10.7227
وک	-10.7227
▁mandira	-10.7228
▁khareed	-10.7229
ٰ	-10.7229
▁islam	-10.723
▁కో	-10.7232
▁jaanh	-10.7233
▁zar	-10.7234
tii	-10.7236
ક્	-10.7237
▁euta	-10.7237
ಿಸಿ	-10.7239
▁inthiya	-10.724
put	-10.7241
▁maarg	-10.7241
▁sola	-10.7241
▁പി	-10.7241
▁gkeaikṭao	-10.7242
▁naka	-10.7242
▁kann	-10.7243
▁صدر	-10.7244
▁maga	-10.7245
two	-10.7245
▁اَ	-10.7246
ାୟ	-10.7247
▁jadon	-10.7247
▁yan	-10.7248
▁deen	-10.7248
লৰ	-10.7251
▁ਕਾ	-10.7252
▁inter	-10.7253
▁دا	-10.7253
ᱭᱩ	-10.7256
▁baje	-10.7256
▁byowostha	-10.7257
iddaare	-10.7258
▁poonn	-10.7258
▁temne	-10.7262
▁dhon	-10.7263
ayein	-10.7263
▁ઓ	-10.7263
▁bekwo	-10.7264
രം	-10.7265
ᱢᱚ	-10.7265
▁ela	-10.7265
हरूको	-10.7267
ीकरण	-10.7269
▁xktfñ	-10.727
▁kutumba	-10.7272
খিবা	-10.7273
ವ್	-10.7274
▁बना	-10.7274
ਬਾ	-10.7275
wu	-10.7279
▁gea	-10.728
▁can	-10.7281
▁کتاب	-10.7286
song	-10.7288
▁swrkara	-10.7288
▁सदस्य	-10.7289
बाव	-10.7293
▁रोग	-10.7294
ꯄꯥ	-10.7299
সকলে	-10.73
ppudu	-10.73
▁puro	-10.7301
▁ddee	-10.7303
▁ಸಿ	-10.7303
▁ਦੋ	-10.7304
▁وار	-10.7304
▁एका	-10.7306
▁टा	-10.7309
▁विभाग	-10.731
▁bibhag	-10.7311
▁കാ	-10.7311
▁adhya	-10.7312
▁jon	-10.7313
्रे	-10.7313
gulo	-10.7315
gl	-10.7318
ꯂꯨ	-10.7318
▁ziyaade	-10.7318
▁किलोमिटर	-10.7319
▁300	-10.7321
tuk	-10.7326
ेस	-10.7326
▁पद	-10.7328
▁lambi	-10.733
▁38	-10.7331
കള	-10.7332
سٹ	-10.7334
▁aasha	-10.7336
▁jeka	-10.734
ർത്ത	-10.734
zaa	-10.7341
▁ᱠᱟᱱᱟ᱾	-10.7343
▁लगा	-10.7345
▁rus	-10.7345
▁rajkanti	-10.7346
▁ಪಾ	-10.7349
▁karaachi	-10.7349
16	-10.7349
▁tata	-10.7351
rush	-10.7351
▁alha	-10.7351
▁rṭhf	-10.7352
▁adhyaksha	-10.7353
▁kahi	-10.7353
▁പരി	-10.7354
21	-10.7355
▁ᱨᱤᱱ	-10.7359
▁खालाम	-10.736
ಷ್ಟ	-10.7362
▁হি	-10.7362
▁डे	-10.7363
ంచ	-10.7363
▁jansankhya	-10.7367
pwi	-10.7368
▁dri	-10.7369
▁उपयोग	-10.737
भव	-10.7371
▁iska	-10.7372
૦	-10.7373
▁కొ	-10.7374
▁kilometres	-10.7375
खो	-10.7375
ाचा	-10.7378
oktf	-10.738
▁islaami	-10.738
▁వె	-10.7383
▁bhal	-10.7383
▁اندر	-10.7383
ایا	-10.7385
vina	-10.7386
dem	-10.7389
▁ਜਾਂਦਾ	-10.739
▁kona	-10.7391
▁ਤਾਂ	-10.7397
▁তাৰ	-10.7397
▁ꯗꯤ	-10.7398
ন্ধ	-10.74
akwi	-10.74
▁wahaan	-10.74
▁mukhyamantri	-10.74
ڌ	-10.7401
ved	-10.7402
bandha	-10.7402
ମାନେ	-10.7403
ম্প	-10.7403
ھا	-10.7405
▁ꯅꯤ꯫	-10.7405
ध्या	-10.7406
ben	-10.7406
▁juwa	-10.7406
▁sobi	-10.7406
kkoo	-10.7407
6	-10.7408
পু	-10.7408
▁karyalaya	-10.741
▁akar	-10.7413
▁jadwngmwn	-10.7413
iyaaga	-10.7413
▁jagat	-10.7414
ᱥᱴ	-10.7415
▁aehi	-10.7415
▁guzashta	-10.7418
खि	-10.7418
বাদ	-10.742
ங்கு	-10.742
▁నా	-10.742
▁kram	-10.7422
▁swatantra	-10.7423
diyam	-10.7425
ᱭᱤ	-10.7425
▁வேண்டும்	-10.7427
بو	-10.7428
▁kail	-10.7428
▁aame	-10.7428
▁vptep	-10.7429
inchaaru	-10.7433
یات	-10.7435
ṭhf	-10.7435
▁dafa	-10.7437
sang	-10.7442
dham	-10.7442
▁vidha	-10.7443
▁गावनि	-10.7446
▁soukaryam	-10.7447
ய்	-10.7448
લે	-10.7448
ील	-10.7448
▁kendriya	-10.7449
ਗਾ	-10.7449
ಡು	-10.745
▁1999	-10.7454
▁કરે	-10.7455
▁পিছত	-10.7455
क्षा	-10.7455
ಪ್ಪ	-10.7456
▁केली	-10.7456
▁ꯆ	-10.7458
करण	-10.7459
▁vikasa	-10.746
▁ഏ	-10.7463
ദേശ	-10.7463
▁manu	-10.7463
શા	-10.7466
▁aq	-10.7466
ಮಾ	-10.7466
يد	-10.7467
▁মধ্যে	-10.7467
▁pataa	-10.7468
▁امام	-10.7469
asu	-10.7469
vida	-10.7469
▁swami	-10.7471
▁فلم	-10.7471
acṣf	-10.7471
▁गई	-10.7474
athinte	-10.7474
▁ft	-10.7474
▁aadya	-10.7474
▁mall	-10.7475
utt	-10.7476
▁durga	-10.7478
▁haqh	-10.7478
▁ایس	-10.7479
▁وزیر	-10.748
▁zam	-10.748
গ্ৰ	-10.7481
୯	-10.7482
▁जाती	-10.7484
▁nuu	-10.7485
14	-10.7485
suba	-10.7487
utf	-10.749
▁phi	-10.7492
▁yee	-10.7493
राव	-10.7496
र्व	-10.7497
▁جون	-10.75
▁badi	-10.75
▁hucub	-10.7501
ଲ୍	-10.7501
ᱠᱤ	-10.7502
▁tay	-10.7502
▁sakti	-10.7502
▁tol	-10.7503
bhab	-10.7503
▁seyasi	-10.7504
▁छै	-10.7504
राज	-10.7505
▁byokti	-10.7505
ദ്ധ	-10.7505
▁sthaap	-10.7505
▁چیز	-10.7508
साठी	-10.7509
▁sanwi	-10.7509
▁હતા	-10.751
ಾರ್	-10.7511
▁பி	-10.7513
পুৰ	-10.7514
▁isai	-10.7517
▁پھ	-10.7517
▁ഓ	-10.7519
ᱥᱚᱱ	-10.752
▁yathaa	-10.7523
▁hui	-10.7524
mananku	-10.7524
▁bakkha	-10.7524
िएको	-10.7525
▁X	-10.7525
▁banai	-10.7526
وز	-10.7526
▁നേ	-10.7527
وال	-10.7528
களுக்கு	-10.753
▁tand	-10.7533
सिम	-10.7533
েট	-10.7534
▁बिथाङा	-10.7534
idam	-10.7535
ps	-10.7536
▁ahee	-10.7536
▁सोरखार	-10.754
र्ट	-10.7542
شم	-10.7543
▁waqia	-10.7545
▁ḍko	-10.7547
ಿಸಿದ	-10.7547
▁ग्र	-10.7549
स्ता	-10.7553
کہ	-10.7554
talo	-10.7555
▁razee	-10.7556
ગ્ર	-10.7557
kang	-10.7557
త్ర	-10.7557
▁seema	-10.7558
০০	-10.7562
▁rahichhi	-10.7563
▁pacha	-10.7565
াস	-10.7567
▁lanai	-10.7569
▁nabee	-10.757
▁रुप	-10.7571
প্ত	-10.7573
قل	-10.7575
ঠা	-10.7576
▁ꯋꯥ	-10.7576
وٽ	-10.7577
ણા	-10.7577
28	-10.7577
श्व	-10.7577
চ্ছ	-10.7578
duva	-10.7578
dnya	-10.7579
▁folot	-10.7579
▁کاغذ	-10.7579
▁ray	-10.758
kur	-10.7581
▁sanskrit	-10.7582
▁ഭ	-10.7583
ਕਸ	-10.7583
▁samu	-10.7585
శ్	-10.7585
▁porjonto	-10.7585
▁ᱜᱟᱱ	-10.7586
rul	-10.7586
▁nw	-10.7586
▁thok	-10.7586
▁jaait	-10.7587
▁hador	-10.759
▁hisebe	-10.7591
रस	-10.7596
▁jojana	-10.7597
▁നാ	-10.7598
ꯖꯤ	-10.7599
▁prapta	-10.7601
▁sehat	-10.7601
▁machh	-10.7603
▁jwo	-10.7604
▁seh	-10.7605
▁mukha	-10.7606
hala	-10.7608
▁bhanne	-10.7609
▁ڪرڻ	-10.761
में	-10.761
rant	-10.7611
ꯃꯥ	-10.7614
▁ayam	-10.7615
45	-10.7616
▁hawalay	-10.7618
uttidda	-10.7619
gah	-10.7621
▁naai	-10.7621
ᱱᱮ	-10.7625
▁लु	-10.7627
▁thal	-10.7628
థ	-10.763
ਕਲ	-10.7631
క్క	-10.7632
തു	-10.7634
allo	-10.7635
▁بچ	-10.7636
▁ಬಾ	-10.764
nantar	-10.7643
ಿರುವ	-10.7643
களின்	-10.7644
र्क	-10.7645
▁১৮	-10.7646
▁idhi	-10.7647
antar	-10.7648
riye	-10.7649
▁असते	-10.765
fño	-10.7652
▁kiti	-10.7652
▁८	-10.7653
▁গু	-10.7654
▁qaraar	-10.7654
ಬಹುದು	-10.7658
▁ਘ	-10.7659
▁இது	-10.766
വര	-10.766
▁und	-10.7661
kkan	-10.7662
▁jaanaa	-10.7663
▁shakya	-10.7664
▁mac	-10.7665
desa	-10.7665
▁sadhan	-10.7667
▁sikhya	-10.7667
▁mate	-10.7668
▁जाए	-10.7669
વો	-10.7672
fwrni	-10.7672
ల్ల	-10.7673
▁ಅಥವಾ	-10.7674
▁অপ	-10.7675
ಗಳಿಗೆ	-10.7675
▁बैंक	-10.7677
र्य	-10.7677
▁agra	-10.7678
▁تعلق	-10.768
▁जिउ	-10.7681
▁krk	-10.7681
▁افراد	-10.7682
▁sayed	-10.7686
reen	-10.7686
ءِ	-10.7687
ঢ়	-10.7688
▁sag	-10.7689
ணி	-10.7692
▁अनेक	-10.7693
ṅ	-10.7697
gen	-10.7698
பு	-10.77
قی	-10.7702
▁udal	-10.7702
▁പു	-10.7703
ടു	-10.7704
okh	-10.7707
ᱚᱨ	-10.7708
▁rakam	-10.7708
▁ತಾ	-10.771
▁बदल	-10.771
▁چار	-10.7713
ڪار	-10.7714
رف	-10.7718
▁गरिएको	-10.7718
▁નિ	-10.7719
▁khetar	-10.7719
▁इत्य	-10.772
جن	-10.772
bhoot	-10.7721
▁yai	-10.7721
▁aaplya	-10.7722
▁oay	-10.7722
dur	-10.7724
یٰ	-10.7727
▁daal	-10.7728
▁yoga	-10.773
వీ	-10.773
പ്	-10.773
▁prayojan	-10.773
यारि	-10.7738
▁ganga	-10.7739
▁چی	-10.774
▁darshan	-10.7742
ದಿಂದ	-10.7744
പ്ര	-10.7745
▁aah	-10.7745
▁65	-10.7746
িৰ	-10.7747
▁nagarpalika	-10.7747
▁ভাষা	-10.7748
▁aru	-10.7748
᱐᱐	-10.7749
ls	-10.7751
undi	-10.7753
haan	-10.7754
pradesh	-10.7755
মী	-10.7757
▁thada	-10.7757
▁karai	-10.776
▁bangla	-10.776
sher	-10.7761
ُن	-10.7763
galinda	-10.7764
꯰	-10.7766
టు	-10.7766
▁hakam	-10.7767
▁hus	-10.7767
▁ura	-10.7769
▁ekar	-10.7769
▁انہیں	-10.7769
▁asan	-10.7771
▁australia	-10.7771
jj	-10.7772
▁ꯅ	-10.7772
▁ਗਈ	-10.7774
ಂಗ	-10.7774
▁अपन	-10.7776
یاں	-10.7776
▁pateh	-10.7777
നാ	-10.7778
▁ᱢᱟᱨᱟᱝ	-10.7781
मुळे	-10.7785
ْ	-10.7785
▁অঞ্চল	-10.7786
▁ektaa	-10.7786
▁milaa	-10.7787
ुल	-10.7787
▁hott	-10.779
▁150	-10.7793
▁hasan	-10.7794
ग्र	-10.7794
ेआ	-10.7794
▁taki	-10.7795
▁بو	-10.7796
▁thein	-10.7796
यत	-10.7797
প্ৰ	-10.7797
cker	-10.7798
▁तयार	-10.7803
कट	-10.7803
pc	-10.7804
▁गेजेराव	-10.7806
▁उच्च	-10.7806
▁shaadi	-10.7807
▁council	-10.7808
زن	-10.7809
▁kewal	-10.7809
▁obo	-10.781
യി	-10.781
rṭhk	-10.7811
▁१८	-10.7812
▁chalaa	-10.7812
▁adhikara	-10.7813
tes	-10.7814
▁हजार	-10.7816
▁ಅವರ	-10.7816
▁ಜಾ	-10.7817
ମାନ	-10.7819
▁என்று	-10.7819
جہ	-10.7819
▁ᱟᱡᱟᱜ	-10.782
رے	-10.7821
▁त्यस	-10.7821
dhaa	-10.7821
yavar	-10.7822
ವೇ	-10.7824
rata	-10.7824
ுடன்	-10.7826
સ્	-10.7827
▁موج	-10.7828
band	-10.783
shit	-10.783
▁saahitya	-10.7833
shar	-10.7833
ଦ୍ଧ	-10.7834
▁sawaal	-10.7835
▁goto	-10.7835
▁joiae	-10.7836
fol	-10.7836
sp	-10.7836
▁सायाव	-10.7837
لن	-10.7837
▁ద	-10.7838
thana	-10.7838
▁khes	-10.7838
ರಿಯ	-10.7839
▁air	-10.7839
▁kalamnw	-10.784
vk	-10.7842
▁dakh	-10.7843
▁sada	-10.7844
▁سل	-10.7844
▁ਮੈ	-10.7845
▁lamba	-10.7845
▁mou	-10.7846
▁aduda	-10.7846
స్తు	-10.7846
▁bhojan	-10.7847
▁kariyai	-10.7847
▁baga	-10.7848
▁dakhal	-10.7848
ਕੇ	-10.7848
inder	-10.785
▁qayem	-10.785
▁saaler	-10.7852
▁dwa	-10.7852
▁chaal	-10.7852
▁ਏ	-10.7854
▁pahilo	-10.7857
▁পাৰে	-10.7858
▁vitamin	-10.7858
सै	-10.7858
▁caarn	-10.786
▁লগতে	-10.7863
▁ಫ	-10.7867
▁sabu	-10.7869
▁ایم	-10.7871
▁jata	-10.7871
▁स्रोत	-10.7872
▁ꯈꯨ	-10.7874
▁৬	-10.7874
kb	-10.7874
▁tej	-10.7876
ـ	-10.7876
▁pratya	-10.7876
▁चौ	-10.7878
ൌ	-10.7878
▁ପୁ	-10.7879
▁super	-10.788
▁ਕੁ	-10.788
▁ھڪ	-10.788
▁श्र	-10.7881
ళ	-10.7881
▁ᱠᱟᱱᱟᱭ	-10.7883
▁naali	-10.7883
▁sanshodhan	-10.7884
▁qoom	-10.7887
▁बेनि	-10.7888
▁पौ	-10.7889
▁adalat	-10.7889
ᱟᱭ	-10.7889
▁जना	-10.7891
ാവ	-10.7895
osh	-10.7896
▁കോ	-10.7897
▁ꯑꯃꯅꯤ꯫	-10.7899
ulo	-10.79
▁সালে	-10.79
ঞ্চ	-10.7901
▁sthap	-10.7902
देव	-10.7903
▁गरे	-10.7904
▁pooch	-10.7905
▁jawa	-10.7906
▁ਬਹੁਤ	-10.7908
तील	-10.7911
வர	-10.7911
▁vibhinn	-10.7913
▁नाथाय	-10.7914
▁mii	-10.7914
▁unake	-10.7919
sida	-10.7919
▁dw	-10.7922
ᱮᱥ	-10.7922
र्ग	-10.7922
وری	-10.7925
▁जाथाय	-10.7926
▁era	-10.7927
▁gami	-10.7928
▁400	-10.7929
نج	-10.7932
ڍ	-10.7933
▁karti	-10.7935
▁ਸਨ	-10.7935
থি	-10.7936
▁porey	-10.7937
▁yet	-10.7938
▁टाइम	-10.7939
▁hanna	-10.794
क्रम	-10.794
पूर	-10.7941
▁badhaa	-10.7941
90	-10.7942
hur	-10.7942
garh	-10.7943
▁khoon	-10.7943
▁matham	-10.7944
gada	-10.7946
bhaw	-10.7946
▁નથી	-10.7947
▁prakara	-10.7947
▁putra	-10.7947
rol	-10.7949
ك	-10.7952
ड़े	-10.7952
▁uchch	-10.7953
way	-10.7955
▁शब्द	-10.7956
▁ఉన్న	-10.7956
▁blo	-10.7957
▁हुने	-10.7957
▁asato	-10.7959
▁lao	-10.7959
ਾਉਣ	-10.796
سن	-10.7961
ring	-10.7962
योग	-10.7962
ಕಾರ	-10.7963
ણી	-10.7964
miti	-10.7965
▁kalyan	-10.7965
यल	-10.7967
ithae	-10.7967
pham	-10.7968
▁काल	-10.7971
▁shra	-10.7971
ds	-10.7972
▁jaatay	-10.7972
▁arambha	-10.7973
▁শে	-10.7974
ڈی	-10.7976
ൃ	-10.7976
jfc	-10.7977
ਸ਼ਾ	-10.7977
▁jun	-10.7978
▁ind	-10.798
ukayum	-10.7983
▁daba	-10.7984
▁७	-10.7984
pasoon	-10.7985
▁ہند	-10.7985
गल	-10.7987
shth	-10.7989
▁khadyo	-10.7989
▁granth	-10.7989
▁adhiniyam	-10.799
ꯍꯥ	-10.7991
▁karkay	-10.7991
▁हुए	-10.7991
▁हादोर	-10.7993
ڻي	-10.7993
▁elawah	-10.7997
▁বছৰ	-10.7997
▁घेत	-10.7997
▁finn	-10.7997
▁विषय	-10.7999
▁क्या	-10.8
▁اش	-10.8002
وق	-10.8002
▁42	-10.8004
▁liya	-10.8005
▁saabat	-10.8006
▁february	-10.8008
▁khuda	-10.8009
moy	-10.801
▁pooja	-10.801
▁ᱚᱞ	-10.8012
र्ष	-10.8014
▁ഡ	-10.8014
▁id	-10.8019
▁کرتا	-10.8019
রী	-10.8019
rog	-10.802
ute	-10.8021
ਗੀ	-10.8022
▁gardai	-10.8023
ബ	-10.8025
▁bhabare	-10.8026
او	-10.8026
▁janata	-10.8026
▁aso	-10.8027
ତ୍ର	-10.8028
▁kati	-10.803
99	-10.803
▁aayey	-10.8033
▁mwnw	-10.8035
▁खामानि	-10.8037
▁aban	-10.8037
▁नं	-10.8037
वाल	-10.8039
চে	-10.8043
tein	-10.8045
▁aizam	-10.8045
ুল	-10.805
ᱵᱷ	-10.805
مبر	-10.8051
ாய்	-10.8051
▁सिंह	-10.8051
ான	-10.8052
▁ਟ	-10.8052
धान	-10.8053
▁phil	-10.8055
ugu	-10.8057
ନୀ	-10.8057
▁europe	-10.8057
▁serve	-10.8058
22	-10.806
▁btc	-10.806
▁chahida	-10.8061
▁nalla	-10.8061
ഖ	-10.8061
▁sahib	-10.8063
▁poantra	-10.8064
▁भए	-10.8065
krama	-10.8066
▁অসিগী	-10.8066
▁گل	-10.8068
▁thabaka	-10.8068
▁ledhaa	-10.8068
ળા	-10.807
▁africa	-10.8074
▁ਬਾਅਦ	-10.8076
▁cheef	-10.8077
നെ	-10.8077
pet	-10.8078
▁anda	-10.8078
ନ୍ଦ	-10.8078
ngalil	-10.8079
▁तुम	-10.8079
▁ಬಿ	-10.8083
35	-10.8085
eche	-10.8086
▁dast	-10.8087
▁boj	-10.8087
▁onusthito	-10.8088
▁asu	-10.809
▁bibhinna	-10.8091
▁aijw	-10.8091
▁deba	-10.8092
جو	-10.8092
▁somaj	-10.8092
57	-10.8094
▁kendro	-10.8094
▁उप्पर	-10.8095
▁ವ	-10.8095
গণ	-10.8096
▁vech	-10.8096
▁દ્વારા	-10.8097
कै	-10.8097
ctor	-10.8098
▁kurai	-10.8098
jay	-10.8099
▁एल	-10.81
▁kichhi	-10.81
▁mahina	-10.81
வும்	-10.8102
▁dwlwa	-10.8102
000	-10.8103
▁ᱟᱹ	-10.8105
▁karoo	-10.8105
▁baithak	-10.8105
kriya	-10.8105
▁tobe	-10.8108
ୃ	-10.8109
▁꯳	-10.811
▁yasako	-10.8113
narya	-10.8114
▁chesta	-10.8114
▁taq	-10.8115
▁ব্যৱহাৰ	-10.8115
▁जाते	-10.8117
▁হায়না	-10.8119
▁rahr	-10.812
▁रंग	-10.8122
▁punah	-10.8122
xomuhor	-10.8124
▁goal	-10.8125
▁সৈতে	-10.8126
sur	-10.8126
▁भो	-10.8126
▁sewa	-10.8126
▁1947	-10.8127
ہی	-10.8128
amaina	-10.8128
▁خوش	-10.8128
ksham	-10.8128
▁mamle	-10.8129
▁என்ற	-10.8131
▁ᱫᱚᱨ	-10.8132
▁गिबि	-10.8132
oom	-10.8132
▁एबा	-10.8133
ಷ್	-10.8134
▁vir	-10.8135
▁باس	-10.8136
▁தி	-10.8138
ದ್	-10.8139
▁mera	-10.8139
▁aama	-10.814
isidaru	-10.8141
ꯊꯣꯛ	-10.8141
▁sambandha	-10.8142
▁ਹੋਣ	-10.8143
ङ्क	-10.8144
थाव	-10.8144
▁asam	-10.8145
▁raah	-10.8145
▁این	-10.8147
▁পাই	-10.8147
▁பிர	-10.8149
▁tyanchya	-10.815
lyan	-10.8151
ിട	-10.8151
ها	-10.8152
phe	-10.8153
▁भु	-10.8153
▁byabohar	-10.8154
യ്ക്ക	-10.8155
লু	-10.8158
▁فو	-10.8158
▁xaḍhwu	-10.8159
▁उन	-10.8162
▁तस्य	-10.8162
▁bp	-10.8162
ᱠᱩ	-10.8164
▁suchana	-10.8165
▁পদ	-10.8165
kalukku	-10.8165
▁ھو	-10.8166
्म	-10.8168
ᱡᱚ	-10.8169
65	-10.8169
▁அதிக	-10.8169
ुक	-10.817
uj	-10.8171
ikkunna	-10.8172
▁নাই	-10.8172
▁khuwa	-10.8172
▁kandu	-10.8175
थे	-10.8175
▁pidi	-10.8177
sol	-10.8178
▁इसके	-10.8178
▁மூ	-10.8181
tantra	-10.8181
▁gk	-10.8182
▁eta	-10.8183
▁dwidengiri	-10.8188
vare	-10.8191
▁jadi	-10.8191
রণ	-10.8191
ालय	-10.8192
▁masjid	-10.8195
ियें	-10.8199
24	-10.8199
▁ଯେ	-10.8199
▁কাজ	-10.8199
ikkaan	-10.82
▁સમ	-10.82
bidh	-10.8202
▁waalon	-10.8204
റ്റി	-10.8204
▁net	-10.8205
ૈ	-10.8205
▁pustaka	-10.8205
▁pye	-10.8205
सक	-10.8206
fñok	-10.8207
iththu	-10.821
▁gaou	-10.8211
▁boley	-10.8211
▁aerpa	-10.8212
arthi	-10.8213
গু	-10.8215
▁kl	-10.8218
এস	-10.8219
bahi	-10.8219
ান্ত	-10.822
▁patti	-10.8222
▁xun	-10.8225
▁lada	-10.8225
▁विचार	-10.8225
▁pahilan	-10.8227
▁bahir	-10.8227
▁عرب	-10.8228
▁ರಾ	-10.8229
▁ᱨᱚ	-10.8229
▁chaalaa	-10.823
▁मन्थ्रि	-10.8232
pori	-10.8232
ꯕꯨ	-10.8232
▁atee	-10.8233
▁eugfx	-10.8233
▁kira	-10.8233
▁gfbṭhf	-10.8233
▁khor	-10.8234
▁enbathu	-10.8234
▁sima	-10.8235
▁bhaar	-10.8236
▁जस	-10.8237
▁म्हण	-10.8237
▁vadh	-10.8238
▁nor	-10.8239
ᱺ	-10.824
▁thayel	-10.824
▁zee	-10.8241
পুর	-10.8244
"	-10.8244
▁udak	-10.8245
▁tamma	-10.8246
▁top	-10.8246
ियन	-10.8248
▁bul	-10.8251
नंतर	-10.8251
▁لیا	-10.8252
તો	-10.8253
▁છ	-10.8253
લિ	-10.8253
44	-10.8255
▁pokh	-10.8256
▁vibhaag	-10.8258
veli	-10.8258
تن	-10.826
ڏ	-10.8263
▁gird	-10.8266
▁ڪتاب	-10.8268
▁sahit	-10.8273
▁jeev	-10.8275
vinno	-10.8276
▁aanu	-10.8277
▁rekha	-10.8279
▁aadhaar	-10.8279
▁hona	-10.828
rige	-10.8281
▁९	-10.8282
▁لگ	-10.8283
▁jhar	-10.8285
▁paksha	-10.8287
dre	-10.8287
ರಿಗೆ	-10.8287
▁تین	-10.829
▁thah	-10.8293
▁पुरा	-10.8294
्यू	-10.8295
▁jaana	-10.8296
ththirku	-10.8297
▁gol	-10.8301
▁আর	-10.8302
বদা	-10.8303
▁वापर	-10.8303
▁punor	-10.8307
▁brit	-10.8307
▁nupi	-10.8308
▁prabhutva	-10.8311
പ്പെട്ട	-10.8312
▁chaoba	-10.8313
▁priya	-10.8313
▁chhaina	-10.8313
▁ٻ	-10.8314
▁biswa	-10.8314
jib	-10.8315
▁मुं	-10.8316
ppatt	-10.8318
▁arb	-10.832
▁bhaaratiya	-10.8321
▁balas	-10.8321
क्टर	-10.8322
▁गर्	-10.8322
▁saaree	-10.8322
▁kem	-10.8324
▁akhtiyar	-10.8325
▁rawayat	-10.8325
▁qubfx	-10.8325
▁peru	-10.8326
▁nayee	-10.8326
▁ir	-10.8331
ران	-10.8331
▁विभिन्न	-10.8333
▁mission	-10.8333
▁୩	-10.8334
▁lea	-10.8335
▁gwiya	-10.8336
▁ahli	-10.8337
नगर	-10.8339
کانٛہہ	-10.8339
ತರ	-10.834
▁yad	-10.8341
▁సా	-10.8341
▁aalee	-10.8343
▁aise	-10.8345
ٽر	-10.8346
▁kehtay	-10.8348
▁بھر	-10.8348
▁वर्सा	-10.835
▁khaate	-10.8351
▁owo	-10.8353
yel	-10.8353
▁deetay	-10.8355
▁ਬਾ	-10.8356
▁vasa	-10.8356
্রা	-10.8358
ीन	-10.836
▁بلکہ	-10.8361
▁ise	-10.8362
▁aabad	-10.8364
sinna	-10.8364
ꯐ	-10.8365
▁kuru	-10.8366
▁وُچھ	-10.8367
ಿತು	-10.8367
jak	-10.8368
दाय	-10.8369
ಬೇಕು	-10.8372
ಸಾ	-10.8372
▁হয়েছে	-10.8374
▁پنجاب	-10.8376
▁ಜನ	-10.8376
ᱴᱚ	-10.8377
▁मैं	-10.8377
▁shaar	-10.8379
▁୧୯	-10.838
▁hasah	-10.838
mulla	-10.8382
பி	-10.8382
મે	-10.8383
▁कुमार	-10.8388
ನಲ್ಲಿ	-10.8391
िम	-10.8391
ণা	-10.8391
▁tasech	-10.8392
▁pul	-10.8394
▁makha	-10.8394
▁izhaar	-10.8395
▁جبکہ	-10.8395
nang	-10.8395
kruti	-10.8396
▁زندگی	-10.8399
▁yogdan	-10.8403
▁খো	-10.8404
tol	-10.8405
▁korna	-10.8406
▁sto	-10.8406
▁maq	-10.8408
▁park	-10.8411
▁shamal	-10.8413
galin	-10.8414
▁عمر	-10.8414
▁wu	-10.8415
▁قرآن	-10.8416
▁गेजेरजों	-10.8416
▁assa	-10.8418
▁january	-10.8418
▁aqa	-10.8421
▁پوءِ	-10.8423
ത്ത്	-10.8424
▁मेल	-10.8426
▁biruddhe	-10.8429
▁chad	-10.843
▁तत्	-10.843
ుల	-10.8431
▁kud	-10.8432
▁bab	-10.8435
▁خاص	-10.8437
▁करून	-10.8437
▁᱙	-10.8438
▁समा	-10.8438
କି	-10.8439
▁sukha	-10.8439
▁phal	-10.8441
▁safa	-10.8442
ಣಿ	-10.8443
କାର	-10.8444
গ্র	-10.8445
fef	-10.8446
dare	-10.8446
hani	-10.8446
▁kasa	-10.8447
lyo	-10.8448
▁ᱨᱤᱱᱤᱡ	-10.845
▁tapman	-10.8452
48	-10.8454
▁vare	-10.8454
inche	-10.8455
رب	-10.8455
ல்ல	-10.8455
▁dasa	-10.8457
रें	-10.8457
▁ullathu	-10.8458
▁virodh	-10.8458
▁atte	-10.846
shwa	-10.8461
adam	-10.8461
▁garib	-10.8462
▁معا	-10.8462
let	-10.8462
▁આવ	-10.8463
▁സം	-10.8463
▁राह	-10.8463
aguttade	-10.8465
▁aduga	-10.8467
▁ᱤᱱ	-10.847
▁किसी	-10.8471
uru	-10.8471
▁zeer	-10.8471
▁shakaay	-10.8475
▁purna	-10.8476
▁ᱯᱨᱚ	-10.8476
▁panchayat	-10.8476
ಕರ	-10.8476
▁jaahaa	-10.8476
ꯧ	-10.8477
▁minn	-10.8478
▁पार	-10.8479
▁lagay	-10.848
jati	-10.8481
▁پرو	-10.8482
▁جاری	-10.8483
ૃ	-10.8483
▁veer	-10.8484
▁ifx	-10.8484
▁sameet	-10.8486
▁ಗು	-10.8488
গৰাকী	-10.8489
mol	-10.8491
▁bpf	-10.8492
▁ਬਿ	-10.8492
▁beey	-10.8493
पर्यंत	-10.8493
ᱠᱷᱚ	-10.8494
▁spe	-10.8494
▁grahan	-10.8496
र्म	-10.8496
ਮਾਨ	-10.8498
▁കൊ	-10.85
kya	-10.8503
▁chem	-10.8507
ାସ	-10.8507
▁alsalaam	-10.851
shala	-10.8512
▁ꯑꯣꯏ	-10.8513
▁ਰੋ	-10.8514
▁qatal	-10.8514
▁yanchya	-10.8516
▁meey	-10.8518
▁julai	-10.8518
▁tasari	-10.8518
▁kanda	-10.8522
▁অমসুং	-10.8525
▁କି	-10.8529
▁adaalat	-10.8529
▁noor	-10.8531
pasun	-10.8532
കാര	-10.8533
▁নিয়ে	-10.8533
▁sambandhi	-10.8533
▁cana	-10.8535
▁bod	-10.8537
▁1991	-10.8539
▁juna	-10.8541
▁ରୋଗ	-10.8541
▁muqa	-10.8541
ᱞᱩ	-10.8541
▁സി	-10.8541
▁کُنہ	-10.8543
▁mang	-10.8544
नायखौ	-10.8545
▁done	-10.8545
ondige	-10.8546
▁لگا	-10.8547
abiq	-10.8547
9	-10.8548
ṭao	-10.8548
▁बहुत	-10.8552
رز	-10.8552
ങ്ക	-10.8554
▁ਜਾਣ	-10.8554
▁nyu	-10.8555
ूर	-10.8555
ింది	-10.8556
▁vaas	-10.8558
ন্ট	-10.8558
യെ	-10.8558
▁vele	-10.8559
▁waaqa	-10.8559
▁ତା	-10.8559
न्य	-10.8561
cp	-10.8561
نڊ	-10.8563
▁karun	-10.8563
▁milan	-10.8565
▁suu	-10.8565
gina	-10.8565
▁hecchu	-10.8566
▁paann	-10.8568
vis	-10.8569
▁gong	-10.8569
▁ڏي	-10.8571
ബി	-10.8572
शन	-10.8572
▁aankh	-10.8573
▁steta	-10.8574
▁बढ़	-10.8574
▁ᱠᱚᱲᱟ	-10.8577
▁তো	-10.8577
▁حق	-10.8578
▁ghet	-10.8578
▁tehreek	-10.8579
shtu	-10.858
▁bix	-10.8581
▁1998	-10.8582
23	-10.8583
undu	-10.8583
▁vet	-10.8586
▁xomaj	-10.8586
▁maopung	-10.8586
قد	-10.8588
িন	-10.859
▁lur	-10.8592
గ్	-10.8594
রের	-10.8597
▁laksh	-10.8598
ism	-10.8599
▁teulukor	-10.8601
▁bhaarata	-10.8602
▁vp	-10.8603
▁ꯊ	-10.8604
▁yith	-10.8604
తా	-10.8605
▁ਰਾਜ	-10.8608
naam	-10.8608
▁buh	-10.8608
▁tyanni	-10.8609
▁pvahuef	-10.861
padu	-10.8611
▁baink	-10.8612
▁vibhinna	-10.8614
puri	-10.8614
▁adhara	-10.8614
ીઓ	-10.8615
▁अपि	-10.8616
ধু	-10.8619
ೃ	-10.8621
▁log	-10.8622
▁aakhri	-10.8625
ईँ	-10.8626
▁ᱰᱤ	-10.8627
▁patta	-10.8627
kshit	-10.863
▁اُ	-10.8631
▁jahaan	-10.8632
udha	-10.8632
ਾਇਆ	-10.8632
abhi	-10.8633
▁شہر	-10.8633
ਸਟ	-10.8635
▁39	-10.8637
▁vijaya	-10.8639
.5	-10.864
ktfx	-10.864
▁itar	-10.864
cation	-10.8642
▁chila	-10.8643
نو	-10.8644
્સ	-10.8644
▁কয়া	-10.8644
▁thodar	-10.8646
▁khaad	-10.8646
loy	-10.8647
pattu	-10.8648
▁1970	-10.8649
▁moi	-10.8649
▁bagge	-10.865
▁بس	-10.8653
▁daad	-10.8654
▁थांनाय	-10.8655
▁nera	-10.8656
▁مقام	-10.8656
▁rachna	-10.8657
شت	-10.8657
عت	-10.8658
ੱਲ	-10.866
▁ulee	-10.8663
▁সময়ত	-10.8664
▁nwjwr	-10.8664
▁چا	-10.8667
▁nana	-10.8668
▁neo	-10.8669
ਧਾਰ	-10.867
തിര	-10.867
taader	-10.867
ധി	-10.8671
வில்	-10.8673
▁doou	-10.8676
ithila	-10.8676
क्षण	-10.8677
নীতি	-10.8678
▁chap	-10.8679
ning	-10.8681
▁jebw	-10.8681
▁Ra	-10.8682
uthiba	-10.8683
▁অতি	-10.8684
▁catna	-10.8684
চন	-10.8684
وٗ	-10.8687
ھن	-10.8689
▁ભારત	-10.8693
▁taeleem	-10.8693
▁mulya	-10.8693
్య	-10.8693
▁abu	-10.8695
ਸ਼ਨ	-10.8696
ncho	-10.8696
▁वाले	-10.8697
▁hele	-10.8697
thy	-10.8698
▁So	-10.8699
ennu	-10.8701
▁mer	-10.8701
▁marana	-10.8704
▁oli	-10.8704
gfñ	-10.8704
▁سنڌي	-10.8707
ttil	-10.8707
▁cancer	-10.8708
▁bakh	-10.8708
▁uxuh	-10.871
▁হয়ে	-10.8712
▁स्क	-10.8712
inalli	-10.8712
▁احمد	-10.8712
मल	-10.8714
▁bani	-10.8714
▁ਸਮ	-10.8716
▁iste	-10.872
▁مجھے	-10.872
33	-10.8723
▁bkoefñ	-10.8723
▁प्रभाव	-10.8725
▁prabhaav	-10.8727
▁hundi	-10.8728
▁ମୁ	-10.8729
▁مد	-10.8731
▁commission	-10.8731
ഞ്ച	-10.8732
▁boad	-10.8733
બી	-10.8733
▁hamaari	-10.8733
ndh	-10.8733
ಪಿ	-10.8734
unu	-10.8734
dwi	-10.8735
anku	-10.8736
▁پڑ	-10.8736
eshan	-10.8737
ure	-10.8737
▁ಕು	-10.8739
▁vira	-10.874
ਝ	-10.8741
▁subungpwra	-10.8745
▁ਹੋਰ	-10.8746
▁फे	-10.8746
vṭhk	-10.8749
▁jaruri	-10.8749
▁ashee	-10.8751
taaru	-10.8752
▁digital	-10.8752
lainai	-10.8753
▁भवति	-10.8755
jiba	-10.8756
▁భ	-10.8758
▁lft	-10.8759
▁వా	-10.8759
bru	-10.876
▁byabahara	-10.8761
ப்பா	-10.8761
▁atyanta	-10.8762
▁गरेका	-10.8763
સ્ત	-10.8764
▁હતો	-10.8764
▁ita	-10.8764
▁தொ	-10.8765
▁aatma	-10.8765
தா	-10.8766
▁pradesha	-10.8768
ଜନ	-10.8768
▁qamee	-10.8769
▁यदि	-10.8769
્યુ	-10.877
▁ٽ	-10.877
भर	-10.8772
▁polis	-10.8772
▁कर्	-10.8775
▁bipanni	-10.8775
▁بیان	-10.8776
▁ब्रह्म	-10.8777
39	-10.8777
▁bil	-10.8778
पासून	-10.8778
nusar	-10.8779
▁biswr	-10.8779
▁పో	-10.8779
हन	-10.8781
▁mum	-10.8781
▁pank	-10.8782
▁गि	-10.8782
goo	-10.8783
▁qareeb	-10.8783
▁sadak	-10.8785
▁faisad	-10.8786
▁ہوتی	-10.8787
▁bane	-10.8788
জু	-10.8789
utta	-10.879
▁پنهنجي	-10.8794
ther	-10.8795
વું	-10.8796
گا	-10.8799
ੰਨ	-10.8799
▁cheya	-10.8803
ᱟᱹ	-10.8803
▁fas	-10.8803
छा	-10.8807
▁fala	-10.8808
▁پن	-10.8808
▁iuxbu	-10.881
▁kharid	-10.8811
uddin	-10.8811
▁تائين	-10.8813
▁xahityo	-10.8814
▁পী	-10.8814
▁aayi	-10.8814
▁khadya	-10.8815
▁கட	-10.8815
बै	-10.8817
▁mapham	-10.8818
▁amada	-10.8819
05	-10.882
निक	-10.882
▁थां	-10.8821
▁شاعر	-10.8821
▁जागोन	-10.8822
▁ڳ	-10.8824
▁tot	-10.8824
▁বিষয়	-10.8825
કી	-10.8825
▁bunny	-10.8826
▁পোৱা	-10.8826
iboloi	-10.8826
▁জি	-10.8826
▁buss	-10.8828
্যু	-10.8829
ꯂꯥ	-10.8829
قي	-10.8829
▁bwi	-10.8829
कल्प	-10.883
▁فقط	-10.8832
▁maithilee	-10.8832
சு	-10.8832
▁رسول	-10.8837
▁baba	-10.8837
দিন	-10.8837
▁ଲୋକ	-10.8838
▁جہاں	-10.8839
tharu	-10.8841
▁ongxo	-10.8843
▁ମି	-10.8845
qṭh	-10.8845
▁kampani	-10.8848
▁taam	-10.8849
▁$	-10.885
▁جواب	-10.885
▁অৱ	-10.8851
▁gz	-10.8851
▁marama	-10.8851
▁vallon	-10.8852
▁muha	-10.8852
▁qanoon	-10.8852
ananda	-10.8852
ᱱᱩ	-10.8853
▁ꯌꯥ	-10.8856
▁हें	-10.8856
avin	-10.8856
▁muham	-10.8857
▁வே	-10.8857
▁हां	-10.8857
▁lakkh	-10.8859
gao	-10.886
▁jatai	-10.886
▁आसीत्	-10.8861
▁সকলো	-10.8861
▁batwo	-10.8861
داد	-10.8861
ttru	-10.8861
▁پار	-10.8864
▁ٿا	-10.8864
ંદ	-10.8865
ટા	-10.8865
▁ennaal	-10.8865
র্থ	-10.8866
▁hindo	-10.8867
▁ꯄꯨ	-10.8867
hol	-10.8868
મી	-10.8868
▁kani	-10.8871
▁फरायसा	-10.8873
زم	-10.8873
ᱰᱮ	-10.8873
▁sarakara	-10.8874
▁amraan	-10.8874
ଟା	-10.8874
▁khanda	-10.8875
▁pug	-10.8876
▁ਸਿ	-10.8877
▁مج	-10.8877
▁ᱱᱚ	-10.8878
▁prastut	-10.888
೦	-10.8881
▁muslimanon	-10.8882
mandal	-10.8883
▁मध्ये	-10.8885
رک	-10.8886
ঝ	-10.8888
ê	-10.8888
▁director	-10.8888
▁swlwngtai	-10.8888
ধান	-10.8889
▁জীৱন	-10.8891
▁rṭhaoai	-10.8892
ستان	-10.8893
खु	-10.8894
૫	-10.8894
▁جہان	-10.8895
▁स्तर	-10.8897
▁tapain	-10.8899
gṭhf	-10.8899
રણ	-10.8901
▁قائم	-10.8901
paad	-10.8904
mala	-10.8905
simda	-10.8906
▁रहा	-10.8906
▁avadhi	-10.8908
▁घे	-10.8908
▁sabab	-10.8908
▁bachcha	-10.8909
▁എന്നിവ	-10.891
▁nirdhar	-10.891
▁jani	-10.8913
ائين	-10.8914
▁swdrwma	-10.8914
ḍhc	-10.8916
▁daakhil	-10.8917
▁lfñ	-10.8917
▁काही	-10.8918
▁vidyarthi	-10.8921
▁ḍpop	-10.8923
▁kooduthal	-10.8923
vva	-10.8924
ਬਰ	-10.8925
▁janam	-10.8927
▁ତ	-10.8927
dex	-10.8927
▁गेले	-10.8929
▁bhumi	-10.8929
ानां	-10.893
▁mok	-10.893
▁purv	-10.8931
▁tanka	-10.8931
दै	-10.8933
▁bina	-10.8933
न्या	-10.8933
▁মহিলা	-10.8935
oax	-10.8935
मित	-10.8936
▁৭	-10.8937
बादि	-10.8937
ਸਾ	-10.8937
▁chol	-10.8939
▁अर्	-10.894
▁toiri	-10.8941
▁परिवार	-10.8941
▁ꯇꯤ	-10.8942
▁ಬೆ	-10.8942
xil	-10.8943
▁poddhoti	-10.8944
▁ujj	-10.8944
▁uscho	-10.8945
हु	-10.8945
▁bot	-10.8946
ಮಾನ	-10.8946
ிலும்	-10.8949
▁ij	-10.8949
angalum	-10.895
ᱛᱚ	-10.8951
▁derha	-10.8952
▁dularai	-10.8953
guri	-10.8953
താ	-10.8954
ছি	-10.8954
▁parat	-10.8954
▁ᱥᱚᱦᱚᱨ	-10.8955
▁बां	-10.8956
▁नाय	-10.8956
▁prapat	-10.8956
▁tuma	-10.8957
▁agf	-10.8958
▁mhanje	-10.8959
શ્	-10.896
ेन्द्र	-10.8961
▁jaal	-10.8962
▁bok	-10.8963
▁आफ्नो	-10.8964
gfo	-10.8965
▁keezh	-10.8965
هن	-10.8965
▁dise	-10.8967
ళ్ల	-10.8967
▁fgfr	-10.8967
▁chhilen	-10.8968
▁ḍṭhk	-10.8969
▁kormo	-10.8971
▁चलचित्र	-10.8971
▁kworangiri	-10.8971
▁atm	-10.8971
▁adhyaksh	-10.8972
▁nirnaya	-10.8972
tali	-10.8974
▁boo	-10.8974
▁आपल्या	-10.8975
▁شاہ	-10.8976
▁hath	-10.8977
مل	-10.8978
ठा	-10.8978
സ്ഥ	-10.8979
▁budd	-10.8979
▁deena	-10.898
vaaga	-10.8981
▁kuwa	-10.8981
▁roh	-10.8982
୍ର	-10.8984
▁poa	-10.8985
▁nalk	-10.8985
▁zariye	-10.8986
ाह	-10.8988
ଚି	-10.8988
▁xohay	-10.8992
▁जुन	-10.8992
▁jooe	-10.8993
માન	-10.8993
▁manav	-10.8993
ੋਰ	-10.8994
খ্রে	-10.8996
પુર	-10.8996
▁جگہ	-10.8998
▁surya	-10.8998
▁bagh	-10.8999
▁jevee	-10.9001
▁nunchi	-10.9001
है	-10.9002
▁manj	-10.9002
▁ᱧᱮᱞ	-10.9002
▁এটি	-10.9003
▁pahile	-10.9003
ಲೇ	-10.9003
appadum	-10.9004
▁gwjwn	-10.9005
▁jhaa	-10.9005
▁atra	-10.9005
ੰਦ	-10.9007
▁prastuta	-10.9008
▁bikri	-10.9008
▁boy	-10.901
نز	-10.901
29	-10.9013
▁sakde	-10.9013
▁mukhel	-10.9014
▁ange	-10.9014
ഗ്	-10.9016
▁sata	-10.9017
▁ᱴᱚᱴᱷᱟ	-10.9018
▁homda	-10.902
▁கொண்ட	-10.902
▁qk	-10.9021
লাই	-10.9021
▁puri	-10.9024
▁मिळ	-10.9026
▁qabal	-10.9027
▁vistar	-10.9027
▁gudd	-10.9028
▁ஜ	-10.9028
ennum	-10.9029
بہ	-10.903
ros	-10.903
୫	-10.9033
▁उद्	-10.9034
▁maluo	-10.9035
▁दिल्ली	-10.9037
▁manuh	-10.9038
▁mashoor	-10.904
▁manushya	-10.9041
ವರ	-10.9042
ਲੋ	-10.9043
চল	-10.9043
▁kayey	-10.9044
gkx	-10.9048
▁ਸਾਲ	-10.905
▁ajj	-10.905
రం	-10.9053
ସା	-10.9054
ক্র	-10.9055
▁ర	-10.9055
▁ગુજરાત	-10.9057
▁ḍṭhfoab	-10.9057
xktf	-10.9058
chari	-10.9058
ರೋ	-10.906
पति	-10.9062
▁अवस्थित	-10.9064
ଣା	-10.9066
ଦେଶ	-10.907
▁irukkum	-10.9072
▁hand	-10.9072
▁لاہور	-10.9073
▁rogi	-10.9074
ങ്ങളിൽ	-10.9074
▁kaarana	-10.9074
▁my	-10.9075
▁nyaya	-10.9075
▁44	-10.9078
▁तरी	-10.9078
ரிய	-10.9078
▁कार	-10.9079
▁ᱯᱮ	-10.908
তাৰ	-10.9082
▁ezhuth	-10.9083
▁maitai	-10.9084
krom	-10.9085
yachi	-10.9086
meter	-10.9086
▁hear	-10.9086
▁rfc	-10.9086
र्त	-10.9087
▁gheta	-10.9088
▁salah	-10.909
▁mud	-10.9092
मक	-10.9092
▁naana	-10.9092
▁vk	-10.9092
▁dasha	-10.9093
▁মৃত্যু	-10.9093
nju	-10.9094
▁iyekn	-10.9094
رش	-10.9095
ञ्ज	-10.9095
▁52	-10.9096
▁ਕਿਹਾ	-10.9099
looni	-10.9101
▁xomo	-10.9101
▁sthapana	-10.9102
▁caṭf	-10.9102
▁july	-10.9103
جھ	-10.9103
▁᱘	-10.9104
▁fla	-10.9104
▁adhikaari	-10.9106
▁کرے	-10.9107
ᱜᱼᱟ	-10.9108
ଶା	-10.9111
▁aakhir	-10.9111
▁pila	-10.9113
ئن	-10.9114
ज्ञान	-10.9115
ान्	-10.9115
দ্র	-10.9117
वै	-10.9117
▁hoithae	-10.9119
ਕਰ	-10.9119
▁அல்லது	-10.9123
fah	-10.9125
rṭh	-10.9125
▁રીતે	-10.913
▁sikitsa	-10.9132
▁વધુ	-10.9132
▁sanja	-10.9134
्व	-10.9134
sani	-10.9136
66	-10.9136
▁sakati	-10.9139
▁राख	-10.914
યો	-10.914
▁ꯍꯥꯏꯕꯁꯤ	-10.9144
▁nidhi	-10.9145
▁dhormo	-10.9145
्र	-10.9146
▁ਵਾ	-10.9148
▁bihaar	-10.9148
37	-10.9149
▁prani	-10.9149
▁47	-10.9151
▁बाहागो	-10.9153
▁batae	-10.9153
▁paisa	-10.9153
▁uniharu	-10.9155
▁ملڪ	-10.9157
▁rp	-10.9157
pri	-10.9159
▁suta	-10.9159
▁kerith	-10.9159
jug	-10.9159
▁ಇದು	-10.9163
27	-10.9164
▁معلوم	-10.9164
▁kobida	-10.9164
73	-10.9165
singi	-10.9166
▁hadees	-10.9167
maar	-10.9173
▁માં	-10.9173
▁جانب	-10.9175
▁udd	-10.9175
opa	-10.9175
▁অংশ	-10.9176
ৰত	-10.9177
▁ministara	-10.9178
ಗು	-10.9178
▁bibah	-10.9179
▁म्हणून	-10.9179
▁ବର୍ଷ	-10.918
▁put	-10.9181
sia	-10.9181
సీ	-10.9183
▁tebe	-10.9186
रां	-10.9186
▁mach	-10.9187
▁mes	-10.9189
mut	-10.919
▁spasht	-10.919
▁andaaz	-10.9191
ക്കും	-10.9192
कां	-10.9193
▁poem	-10.9195
dharan	-10.9195
▁دونوں	-10.9196
▁taaluq	-10.9197
▁फिर	-10.9198
িকা	-10.92
▁مار	-10.92
▁tatra	-10.9201
▁پڑھ	-10.9202
vaas	-10.9203
▁गाय	-10.9203
రణ	-10.9204
প্র	-10.9205
yinda	-10.9206
▁uthaa	-10.9208
▁laibaka	-10.921
▁adhiga	-10.921
▁bananay	-10.9212
এ	-10.9212
nno	-10.9212
▁مس	-10.9213
▁karait	-10.9216
▁chhap	-10.9216
oner	-10.9218
ric	-10.9218
ꯗꯒꯤ	-10.9219
▁हांगा	-10.9221
▁final	-10.9221
য়ন	-10.9221
ाणि	-10.9222
fd	-10.9222
▁taal	-10.9224
ship	-10.9224
kem	-10.9225
▁सांग	-10.9226
▁solositro	-10.9226
न्ना	-10.9227
▁marathi	-10.9229
तन	-10.923
▁दान	-10.923
ബ്	-10.9231
▁ئي	-10.9232
▁pash	-10.9233
ଣ୍ଟ	-10.9234
▁kus	-10.9234
▁sakht	-10.9235
▁om	-10.9235
গৰ	-10.9235
ꯄꯨ	-10.9235
▁ḍfñybk	-10.9236
▁ଯ	-10.9236
▁bondho	-10.9237
78	-10.9237
▁भाव	-10.9238
▁baab	-10.9239
▁khwa	-10.9239
▁ખા	-10.924
▁kahani	-10.9241
▁teuk	-10.9242
കര	-10.9242
▁tyaare	-10.9243
▁taadad	-10.9245
▁afghanistan	-10.9252
▁daari	-10.9253
▁rkx	-10.9254
▁sarbarah	-10.9254
▁tiru	-10.9254
ᱤᱭᱟ	-10.9255
ਾਲ	-10.9255
▁bhavishya	-10.9257
▁udaaharan	-10.9259
▁kang	-10.9259
ykku	-10.926
▁जों	-10.926
attu	-10.9261
▁bhaj	-10.9263
▁गाउँ	-10.9266
▁bhau	-10.9267
ପ୍	-10.9267
▁kaany	-10.9268
నం	-10.9269
▁करते	-10.9273
▁gula	-10.9273
خت	-10.9275
▁nari	-10.9276
▁vay	-10.9277
ാൽ	-10.9277
▁hoithiba	-10.9277
▁sundar	-10.9277
▁ವಾ	-10.9278
▁Home	-10.9278
▁41	-10.9279
ైన	-10.9279
সন	-10.928
ரம்	-10.9282
▁thauram	-10.9282
▁হো	-10.9283
▁tankara	-10.9284
▁پیدا	-10.9286
▁uddeshya	-10.9286
▁pojitiba	-10.9287
38	-10.9287
tkoi	-10.9287
▁bija	-10.9287
▁niya	-10.9288
kirathu	-10.9291
▁lar	-10.9293
puram	-10.9296
क्रिय	-10.9296
▁thika	-10.9297
▁hira	-10.9297
ચા	-10.9297
ारी	-10.9297
▁ghad	-10.9298
▁jall	-10.9299
▁हाबाफारि	-10.9302
▁peeda	-10.9303
jaba	-10.9304
യിലെ	-10.9305
▁kichu	-10.9306
rupa	-10.9307
▁1960	-10.9308
ദി	-10.931
▁ᱥᱟᱞ	-10.931
▁kirdaar	-10.9311
▁zamana	-10.9312
▁saheeh	-10.9312
▁কর	-10.9314
▁1971	-10.9315
▁ortho	-10.9316
▁পারে	-10.9319
avil	-10.9319
▁ڳوٺ	-10.9319
ꯔꯤꯕ	-10.932
▁چلان	-10.9322
▁masigi	-10.9323
▁ᱮᱢ	-10.9323
▁hoto	-10.9324
▁dawa	-10.9324
ದೇ	-10.9324
▁madhyama	-10.9325
ellah	-10.9326
▁dex	-10.9329
▁ଅଧିକ	-10.9329
▁rk	-10.933
▁یمی	-10.933
katha	-10.9335
▁yokka	-10.9335
▁upasthit	-10.9337
chandra	-10.9338
म्प	-10.9339
▁ᱞᱮ	-10.9339
▁xpt	-10.934
▁kaarane	-10.934
▁dwn	-10.9341
ganj	-10.9341
▁temnaa	-10.9343
▁parishad	-10.9344
▁center	-10.9346
▁musta	-10.9347
ᱦᱤ	-10.9348
▁aana	-10.9348
▁shun	-10.9349
एम	-10.935
ટર	-10.9351
▁shilp	-10.9351
्रु	-10.9352
ଥି	-10.9353
▁yah	-10.9353
▁bharteey	-10.9355
फुं	-10.9357
▁giraftar	-10.9357
साय	-10.9358
ꯁ꯭	-10.9358
▁ꯃꯤꯇꯩ	-10.9361
▁praapya	-10.9362
▁pakka	-10.9363
ھو	-10.9363
َر	-10.9363
unde	-10.9365
unnathu	-10.9366
ृष्ट	-10.9366
▁maut	-10.9366
vaanu	-10.9368
▁धर	-10.937
ट्र	-10.937
▁મે	-10.937
দৰ	-10.937
▁टे	-10.9371
▁uccha	-10.9373
▁sakada	-10.9373
ibaku	-10.9374
▁khala	-10.9374
xong	-10.9375
▁शिव	-10.9376
cchi	-10.9376
85	-10.9377
سر	-10.9378
▁kosam	-10.9378
▁વર્ષ	-10.9378
▁ref	-10.9378
58	-10.9379
▁alla	-10.938
▁kene	-10.938
▁aagiya	-10.938
▁sus	-10.938
▁asat	-10.9383
▁सां	-10.9383
▁ਦਰ	-10.9385
ীর	-10.9385
oae	-10.9385
ृत	-10.9385
▁جيڪو	-10.9386
▁england	-10.9386
achea	-10.9386
▁prashikshan	-10.9387
▁loy	-10.9388
▁maari	-10.9389
▁১০	-10.939
alanu	-10.9391
▁ameer	-10.9393
sheel	-10.9395
▁संख्या	-10.9396
67	-10.9397
▁عبدال	-10.9397
ଠ	-10.9397
▁num	-10.9401
▁mund	-10.9401
iyathu	-10.9403
ड्	-10.9403
▁ফে	-10.9403
ంట	-10.9406
▁jyoti	-10.9408
▁अवतरण	-10.9409
▁अपना	-10.941
▁iz	-10.941
▁idam	-10.9411
وي	-10.9412
▁51	-10.9412
▁مال	-10.9412
तू	-10.9414
▁ckrḷofñ	-10.9416
▁kida	-10.9416
▁cheyth	-10.9417
▁hfxfd	-10.9418
▁ᱵᱷᱟ	-10.9418
▁میرے	-10.9418
्यां	-10.9419
▁गीत	-10.942
dhikari	-10.942
صر	-10.9421
थार	-10.9422
▁parish	-10.9422
▁સે	-10.9422
▁edi	-10.9423
bṭhf	-10.9424
▁ob	-10.9425
▁dard	-10.9426
▁bhang	-10.9428
▁यू	-10.943
41	-10.9431
వే	-10.9431
▁shahh	-10.9431
▁mundu	-10.9433
▁aes	-10.9433
▁kelo	-10.9433
▁operation	-10.9435
sthal	-10.9435
xfñ	-10.9436
▁கொ	-10.9436
▁46	-10.9437
khraba	-10.9437
ᱦᱟᱨ	-10.9437
دان	-10.9438
▁sakate	-10.9438
ical	-10.944
▁laogfo	-10.944
▁karibaku	-10.944
▁gardacha	-10.9442
ᱜᱩ	-10.9442
▁nwng	-10.9443
▁payanpaduthth	-10.9444
▁اہم	-10.9447
▁core	-10.9447
ଞ୍ଜ	-10.9449
▁paatasaala	-10.9451
▁mish	-10.9454
wee	-10.9456
▁phu	-10.9456
▁twi	-10.9457
ന്നു	-10.9457
▁reeti	-10.9459
ழு	-10.946
pped	-10.946
ꯥꯎ	-10.946
▁ṭf	-10.9461
ণী	-10.9462
▁khususi	-10.9463
ꯉꯥ	-10.9464
یش	-10.9464
দ্ৰ	-10.9465
▁larao	-10.9465
▁कक्राझार	-10.9465
▁maley	-10.9466
▁paer	-10.9466
▁صلی	-10.9467
avo	-10.9467
▁নতুন	-10.9468
▁सू	-10.9468
rannu	-10.9468
36	-10.9471
▁ಪ್ರತಿ	-10.9473
▁mwnnw	-10.9474
▁newz	-10.9474
▁منٛز	-10.9475
▁malik	-10.9478
▁thai	-10.9479
▁shik	-10.948
▁budh	-10.9481
▁ਡ	-10.9481
xacao	-10.9482
▁ganu	-10.9482
▁saara	-10.9483
▁ushna	-10.9484
▁lii	-10.9485
वळ	-10.9485
झा	-10.9485
ন্থ	-10.9485
▁vistaar	-10.9487
▁chitrapat	-10.9487
آ	-10.9489
yagi	-10.949
▁karichanti	-10.9491
▁ऑ	-10.9491
▁ਤੌਰ	-10.9492
▁ghaa	-10.9492
▁fx	-10.9492
▁karam	-10.9493
hau	-10.9493
prati	-10.9494
ವರ್	-10.9495
▁kro	-10.9495
চৰ	-10.9495
बू	-10.9498
47	-10.95
▁bhas	-10.9501
ꯀꯨ	-10.9502
yaaga	-10.9503
▁sehi	-10.9505
▁haipat	-10.9506
▁tunn	-10.9506
▁আৰম্ভ	-10.9508
shma	-10.9509
▁dharmik	-10.951
▁paad	-10.9512
▁मिथि	-10.9513
▁box	-10.9513
ফা	-10.9514
▁btr	-10.9516
shaka	-10.9518
ுக்கு	-10.952
▁banaya	-10.9521
डो	-10.9522
ळे	-10.9526
▁jekee	-10.9528
▁ḍfwft	-10.9528
▁puthiya	-10.9528
वान	-10.9529
▁58	-10.9529
▁saho	-10.953
▁بال	-10.953
्यते	-10.9531
▁mota	-10.9531
ാര	-10.9532
▁ಕೆ	-10.9532
▁ꯑꯃꯗꯤ	-10.9532
▁vaj	-10.9533
ংক	-10.9535
▁بڑھ	-10.9535
▁sabse	-10.9538
▁ahaa	-10.9538
▁ziyaad	-10.9539
హా	-10.9539
यु	-10.954
▁mansi	-10.9542
ꯇꯥ	-10.9542
▁hissa	-10.9542
uttave	-10.9542
ப்பி	-10.9542
▁deb	-10.9543
▁ingraji	-10.9544
▁mile	-10.9544
▁ਹਰ	-10.9545
▁shikshak	-10.9545
▁avarkal	-10.9546
▁mauke	-10.9546
▁saruk	-10.9547
▁bitang	-10.9548
▁ꯐ	-10.9548
୪	-10.9548
▁badala	-10.9549
55	-10.9549
ರುವ	-10.955
ഫ	-10.9551
▁darsha	-10.9553
▁ৰোগ	-10.9554
▁jhaale	-10.9554
▁गोदान	-10.9554
▁vaddh	-10.9555
ৰ্থ	-10.9555
মো	-10.9557
পে	-10.9558
▁सन	-10.9558
ত্তি	-10.9559
▁बिथांआ	-10.9561
▁आवश्यक	-10.9561
नाया	-10.9562
hax	-10.9562
কপা	-10.9563
▁zu	-10.9565
▁झाले	-10.9565
▁shikkha	-10.9565
ᱱᱟᱜ	-10.9566
ᱦᱮ	-10.9566
▁porikhya	-10.9567
▁کہنا	-10.9568
▁सेहो	-10.9569
ꯇꯦ	-10.9572
జా	-10.9572
▁नु	-10.9573
▁1996	-10.9575
റിയ	-10.9577
જી	-10.9577
சை	-10.9579
దేశ	-10.958
▁செய்ய	-10.9581
▁bixoy	-10.9581
द्या	-10.9582
▁gaumpalika	-10.9582
▁mapa	-10.9582
▁ସି	-10.9584
▁खर	-10.9585
▁mull	-10.9587
▁poschim	-10.9587
▁చె	-10.9591
car	-10.9591
baak	-10.9592
ಿರ	-10.9593
ୌ	-10.9594
ಪಾ	-10.9596
▁gyan	-10.96
ाउने	-10.96
▁गासै	-10.9601
కే	-10.9601
ത്തി	-10.9602
ന്റെ	-10.9602
▁hya	-10.9604
फिन	-10.9605
utunna	-10.9605
▁wadee	-10.9606
▁હતું	-10.9606
▁নিৰ্	-10.9607
श्र	-10.9607
ளை	-10.9609
ഥ	-10.9609
▁suh	-10.961
▁पक्ष	-10.9611
yache	-10.9611
▁parh	-10.9613
▁korta	-10.9614
ppeduth	-10.9615
▁pl	-10.9616
ppett	-10.9617
▁makh	-10.9617
▁sahi	-10.9617
▁taake	-10.9619
ङा	-10.9619
दियां	-10.9619
▁অভি	-10.962
▁khaandaan	-10.9621
▁saf	-10.9621
सू	-10.9624
▁dhaar	-10.9624
ᱵᱷᱟ	-10.9625
▁थो	-10.9626
لس	-10.9626
▁ফি	-10.9627
▁khettre	-10.9628
bandi	-10.9628
▁yuddh	-10.9628
▁ꯁꯤ	-10.963
▁ayu	-10.9631
▁କୋ	-10.9631
sc	-10.9632
पाक	-10.9633
sata	-10.9634
मत	-10.9634
▁सकता	-10.9636
▁amagi	-10.9637
▁antarrashtriya	-10.9637
▁గ్రామంలో	-10.9637
▁aayo	-10.9638
ائل	-10.9638
▁mushtamil	-10.964
▁online	-10.9641
▁ᱦᱤ	-10.9642
कृत	-10.9644
▁khilaf	-10.9644
ಸೆ	-10.9644
▁डॉ	-10.9644
▁वर्ग	-10.9645
xik	-10.9647
▁kudumba	-10.9647
▁gabarnamenta	-10.9649
▁sanyukt	-10.9651
শ্ব	-10.9654
vaagi	-10.9655
▁taanr	-10.9656
ম্ম	-10.9657
▁deekh	-10.9657
▁dass	-10.9659
ষ্ঠ	-10.9662
▁வெ	-10.9664
ன்று	-10.9666
▁dollar	-10.9667
গি	-10.967
▁wf	-10.9671
▁نماز	-10.9671
▁samachar	-10.9671
▁sigangao	-10.9674
pho	-10.9674
▁laagun	-10.9676
ಜ್	-10.9677
ಂತೆ	-10.9677
▁tapp	-10.9677
▁hanai	-10.9678
▁qo	-10.968
ತ್ರ	-10.9681
▁jaayega	-10.9681
▁odh	-10.9682
िं	-10.9683
▁vaan	-10.9684
▁3000	-10.9684
▁ନା	-10.9685
▁অসিদা	-10.9687
ಬ್	-10.9687
abeku	-10.9688
▁رس	-10.9688
ngka	-10.9689
▁khetra	-10.9691
▁shaheed	-10.9692
▁سم	-10.9692
▁नदी	-10.9693
▁parti	-10.9694
ेशन	-10.9696
याः	-10.9696
▁code	-10.9697
▁لاکھ	-10.9697
▁हाल	-10.9698
▁vatavaran	-10.9698
مو	-10.9699
ਟਾ	-10.9701
nabagi	-10.9701
ᱛᱷ	-10.9702
க்கி	-10.9702
▁چین	-10.9703
▁rakhee	-10.9703
ائر	-10.9704
▁ওইনা	-10.9704
tram	-10.9704
ଶ୍	-10.9704
▁aasi	-10.9705
▁lairi	-10.9705
▁disha	-10.9707
▁এনে	-10.9708
gaagi	-10.9708
దే	-10.9709
ہن	-10.9709
भे	-10.971
▁haad	-10.9711
68	-10.9712
ngkalai	-10.9713
pwrao	-10.9715
56	-10.9717
nangwn	-10.972
▁bhra	-10.972
ꯔꯣ	-10.9721
▁vorsa	-10.9721
▁grah	-10.9724
▁member	-10.9725
▁nilai	-10.9726
▁ṭk	-10.9728
व्ह	-10.9728
▁উদ্	-10.9728
▁porai	-10.973
চাৰ	-10.9732
▁धेरै	-10.9732
▁બા	-10.9732
િયા	-10.9732
▁naah	-10.9733
▁afsar	-10.9733
▁gwjwo	-10.9734
pam	-10.9734
▁تع	-10.9736
▁model	-10.9737
▁Pa	-10.9738
▁modala	-10.9739
▁De	-10.974
42	-10.9742
▁sis	-10.9744
lalo	-10.9745
kkuka	-10.9745
एल	-10.9747
▁maanho	-10.9748
▁zilaee	-10.9748
ाद	-10.9749
ഭാഗ	-10.9751
▁होन्ना	-10.9751
▁jile	-10.9752
ଛ	-10.9753
▁ਸਕਦਾ	-10.9754
yasya	-10.9754
rike	-10.9756
फि	-10.9756
▁maca	-10.9756
भार	-10.9757
ിരുന്ന	-10.9758
ੱਡ	-10.9759
ਭਾ	-10.9761
मै	-10.9767
▁اہل	-10.9767
▁cup	-10.9767
தாக	-10.9767
rel	-10.9768
▁king	-10.9769
ضرب	-10.977
বল	-10.977
ाना	-10.9771
▁ਛ	-10.9771
▁bunyaad	-10.9776
▁alai	-10.9777
वारी	-10.9777
नं	-10.9777
▁mhonn	-10.9778
▁فار	-10.9778
काल	-10.9779
▁dibo	-10.9779
▁kimee	-10.978
▁loke	-10.9781
▁kshamata	-10.9783
▁peh	-10.9784
▁ڪن	-10.9784
ાવ	-10.9785
▁sarve	-10.9785
▁gair	-10.9785
▁peri	-10.9786
▁wahee	-10.9787
▁jengna	-10.9787
प्प	-10.9788
▁manipuragi	-10.9788
vaamaa	-10.9789
▁नेपाली	-10.9789
shcha	-10.979
ꯋꯥ	-10.9791
▁पं	-10.9792
ेका	-10.9793
▁یہاں	-10.9794
▁puh	-10.9795
▁adab	-10.9797
ଡା	-10.9797
▁ima	-10.9798
▁mishra	-10.9805
bhava	-10.9806
▁ਸਭ	-10.9807
▁dro	-10.9807
▁சா	-10.9808
▁ରହି	-10.9809
▁tele	-10.9809
ଭି	-10.981
▁gotie	-10.9811
▁lux	-10.9812
ಗಾ	-10.9814
shesh	-10.9814
▁dura	-10.9816
स्ति	-10.9816
▁കുറ	-10.9817
▁mager	-10.9817
▁via	-10.9819
▁swi	-10.9819
▁gati	-10.982
▁akshar	-10.9821
▁ilaa	-10.9822
ద్ద	-10.9823
▁aboo	-10.9825
▁शुरू	-10.9825
▁utpadon	-10.9825
▁केन्द्र	-10.983
▁1997	-10.983
▁purbo	-10.983
▁american	-10.9831
▁xongkhya	-10.9832
▁shikaar	-10.9833
▁vishisht	-10.9833
▁shir	-10.9833
▁ꯊꯥ	-10.9835
▁tamil	-10.9836
▁شک	-10.9836
▁ᱡᱟᱱᱟᱢ	-10.9837
chhu	-10.9838
▁amana	-10.9839
হাৰ	-10.9839
▁અથવા	-10.9842
shika	-10.9844
▁ছা	-10.9847
ꯂꯦ	-10.9849
ᱠᱟᱹ	-10.9849
▁kn	-10.9849
▁sultan	-10.9849
नाव	-10.985
▁andh	-10.9851
▁korat	-10.9851
▁delhi	-10.9853
खार	-10.9853
▁ਸਰ	-10.9854
▁बात	-10.9855
ಧಿ	-10.9856
ధి	-10.9857
▁cre	-10.9858
▁स्प	-10.9858
▁jilaar	-10.9859
▁madhyome	-10.986
mukhi	-10.986
▁ill	-10.986
▁ḍfḍf	-10.9861
uchhi	-10.9866
▁mondir	-10.9868
poti	-10.9868
▁महाराष्ट्र	-10.9869
▁ज़	-10.987
ਵੀ	-10.9871
▁tareen	-10.9871
▁poru	-10.9872
▁state	-10.9875
uttaare	-10.9876
ുണ്ട്	-10.9876
▁thayaa	-10.9877
୬	-10.9877
won	-10.9878
▁kolla	-10.9878
▁shob	-10.988
ിക്കുന്ന	-10.9881
▁keete	-10.9882
▁avedana	-10.9882
▁प्रदान	-10.9882
▁sams	-10.9884
▁waazah	-10.9886
▁botaa	-10.9887
▁ਕੈ	-10.9889
ꯉ	-10.989
ନ୍ତ	-10.989
ృ	-10.9891
ड्ड	-10.9892
43	-10.9892
ਵਿ	-10.9894
़	-10.9894
टन	-10.9894
▁bondo	-10.9896
▁dhee	-10.9898
▁مسلم	-10.9898
▁pull	-10.9899
युक्त	-10.9899
▁xoru	-10.99
ۃ	-10.9901
▁खौ	-10.9901
▁gede	-10.9902
▁২০	-10.9902
കളുടെ	-10.9904
▁maanav	-10.9905
rinda	-10.9905
ddhi	-10.9906
▁maataa	-10.9906
▁పె	-10.9907
▁turk	-10.9908
कें	-10.9908
▁ستن	-10.9908
▁pramukha	-10.9909
▁masim	-10.9909
▁achee	-10.9909
యు	-10.9909
નાં	-10.9909
ṭhax	-10.9911
▁janganana	-10.9914
▁alma	-10.9914
95	-10.9914
▁व्य	-10.9916
▁ہمارے	-10.9916
વિ	-10.9917
اڻ	-10.9918
▁sarwa	-10.9918
zer	-10.9919
▁khosusiyat	-10.9919
▁zaat	-10.992
▁coole	-10.992
ध्य	-10.992
lly	-10.9921
▁naveen	-10.9923
▁technology	-10.9923
ିବା	-10.9924
▁lfo	-10.9925
▁varai	-10.9925
ᱨᱟᱢ	-10.9926
്യൂ	-10.9927
▁جانے	-10.9929
▁ish	-10.9931
▁᱒᱐᱑᱑	-10.9931
▁जाग	-10.9933
డం	-10.9933
ാമ	-10.9934
▁जै	-10.9936
nmadhye	-10.9937
▁shram	-10.9937
मुख	-10.9938
▁rakhnay	-10.994
▁ᱥᱮᱪᱮᱫ	-10.9941
▁bhoomika	-10.9942
tuna	-10.9943
▁ভিতৰত	-10.9943
▁grop	-10.9945
▁media	-10.9946
▁jara	-10.9946
ᱲᱤ	-10.9946
▁eth	-10.9946
▁جھ	-10.9948
▁இந்திய	-10.9948
▁zana	-10.995
khand	-10.9951
ichhi	-10.9954
▁bepwr	-10.9955
ందు	-10.9955
▁mudra	-10.9957
▁hwnanwi	-10.9957
ꯔꯦ	-10.9961
ٛ	-10.9961
▁kula	-10.9962
ंव	-10.9962
▁kotta	-10.9962
ેટ	-10.9962
▁ᱫᱤ	-10.9963
ળી	-10.9963
▁cri	-10.9963
▁paara	-10.9964
ವಾಗ	-10.9965
▁লগত	-10.9966
દેશ	-10.9966
ंज	-10.9968
▁gurut	-10.997
েৰে	-10.997
▁ব্যা	-10.9971
▁sampark	-10.9972
▁fai	-10.9972
▁aldeen	-10.9972
▁অধিক	-10.9973
graha	-10.9973
ڙو	-10.9973
▁sanket	-10.9974
▁maelum	-10.9974
▁धन	-10.9976
▁meer	-10.9976
▁arasu	-10.9977
ब्ब	-10.9977
ଜା	-10.9977
ప్ప	-10.9977
▁करो	-10.9978
▁hin	-10.998
▁سکتا	-10.998
▁vall	-10.9981
▁किंवा	-10.9982
▁eti	-10.9984
▁bahr	-10.9984
▁anubhav	-10.9985
▁mausam	-10.9985
▁officer	-10.9986
▁pora	-10.9987
▁kerala	-10.9988
32	-10.9988
▁np	-10.9989
▁project	-10.999
vika	-10.9991
▁qama	-10.9991
▁lap	-10.9993
कर्ता	-10.9995
▁रू	-10.9997
▁उनी	-10.9997
▁गाहाइ	-10.9998
▁israel	-10.9998
▁layw	-10.9999
▁thap	-11.0002
يڪ	-11.0002
▁فوج	-11.0005
▁સમય	-11.0006
▁irunthu	-11.0007
ङो	-11.0007
ട്	-11.0008
ଦି	-11.001
pen	-11.001
ନ୍ତି	-11.0011
ᱢᱮ	-11.0012
▁thile	-11.0015
▁நீ	-11.0015
kaden	-11.0017
▁శ	-11.002
▁esa	-11.0021
▁mark	-11.0023
▁muga	-11.0023
نسے	-11.0024
▁ਮਿ	-11.0024
74	-11.0025
▁drav	-11.0026
▁elaqay	-11.0026
عل	-11.0026
▁pazha	-11.0027
ழி	-11.0027
dhaan	-11.0028
▁pradhan	-11.003
▁roshni	-11.0031
▁दौ	-11.0031
▁aduna	-11.0032
▁narendra	-11.0032
▁पूर्ण	-11.0033
▁sav	-11.0034
ండి	-11.0034
▁punn	-11.0035
▁tyamule	-11.0035
▁मख	-11.0035
ੰਗ	-11.0036
ꯢ	-11.0036
ধি	-11.0037
क्ट	-11.0037
▁gurf	-11.0039
▁aman	-11.004
▁ಅವರು	-11.0041
য়ার	-11.0042
▁ubhee	-11.0042
▁झा	-11.0047
ान्त	-11.0048
attra	-11.0049
▁alg	-11.005
▁baghair	-11.0051
▁ಪರಿ	-11.0052
▁एत	-11.0053
fu	-11.0053
▁jyaare	-11.0053
▁ہنٛد	-11.0059
jhe	-11.0059
ence	-11.0059
पक	-11.0062
▁bitangni	-11.0062
फल	-11.0063
▁खौरां	-11.0063
antara	-11.0064
▁ووٚن	-11.0068
▁ass	-11.0068
▁mini	-11.007
▁janwari	-11.0071
▁زبان	-11.0071
▁indu	-11.0074
▁nades	-11.0075
yaada	-11.0075
ப்படும்	-11.0076
▁పరి	-11.0076
▁ہزار	-11.0079
▁ڪر	-11.008
न्ह	-11.008
▁etiya	-11.0082
ज्ज	-11.0082
▁haqeeqat	-11.0083
खालि	-11.0084
▁ahle	-11.0084
▁manipurada	-11.0085
▁ખેતી	-11.0085
▁madat	-11.0086
▁ଜା	-11.0086
vag	-11.0087
▁लेख	-11.0087
ട്ട്	-11.0088
▁television	-11.0089
▁గు	-11.0089
োঁ	-11.009
ಂಕ	-11.0091
हाय	-11.0092
▁varga	-11.0093
▁thozhil	-11.0093
▁karachi	-11.0094
▁مدد	-11.0094
▁anah	-11.0096
▁justice	-11.0096
▁kisuman	-11.0096
7	-11.0097
েক	-11.0097
▁سپ	-11.0098
▁جمع	-11.0098
▁baz	-11.0099
72	-11.01
▁heli	-11.0101
▁hosa	-11.0101
▁پڻ	-11.0103
cham	-11.0104
▁saral	-11.0105
▁49	-11.0108
▁og	-11.0112
▁mayek	-11.0114
tut	-11.0114
বিধ	-11.0115
ᱞᱟᱹ	-11.0116
▁doll	-11.0116
▁آن	-11.0117
▁kelasa	-11.0117
▁43	-11.0118
ষ্	-11.0118
▁met	-11.0118
ᱯᱤ	-11.0119
▁ꯂꯥ	-11.012
mel	-11.0121
llathu	-11.0122
▁मार	-11.0122
କ୍ତ	-11.0124
در	-11.0124
artham	-11.0124
▁mukhyo	-11.0124
▁karib	-11.0124
▁ছিল	-11.0126
ಚ್	-11.0126
▁ਇ	-11.0126
र्ध	-11.0127
▁kra	-11.0127
▁ᱠᱚᱣᱟᱜ	-11.0127
ण्यात	-11.0129
▁ᱟᱹᱛᱩ	-11.0129
▁vidyalaya	-11.013
▁sul	-11.0131
▁seed	-11.0131
otar	-11.0133
▁kunha	-11.0134
▁fel	-11.0136
▁ghan	-11.0136
▁प्रत्येक	-11.0137
bya	-11.0138
cal	-11.0138
dol	-11.0139
ેલ	-11.0139
▁vali	-11.014
▁shodh	-11.014
▁madhu	-11.0141
পাত	-11.0142
▁adara	-11.0142
▁aazadi	-11.0143
▁bolee	-11.0143
விட	-11.0148
▁اپنا	-11.0149
▁saarvajanik	-11.0149
▁deenhan	-11.015
ిక	-11.0152
▁charan	-11.0153
য়ো	-11.0155
▁ٺ	-11.0155
▁hfñbktfñok	-11.0157
▁ভাল	-11.0157
૩	-11.0159
▁payan	-11.016
▁پہنچ	-11.016
ꯡꯕ	-11.0161
▁ಹೊಂದ	-11.0164
▁پاڪستان	-11.0164
▁ḍkorfñcfy	-11.0164
cul	-11.0165
▁wado	-11.0166
ન્ટ	-11.0166
▁hfñxk	-11.0167
▁duaa	-11.0169
▁ᱫᱮ	-11.0171
▁mamalik	-11.0172
▁sthana	-11.0173
▁waee	-11.0174
▁କୌଣସି	-11.0175
▁yetheel	-11.0176
▁kahe	-11.0177
▁कीता	-11.0179
▁کمۍ	-11.018
▁motor	-11.018
▁korun	-11.0181
▁महरै	-11.0181
▁गोसो	-11.0181
ꯅꯤ꯫	-11.0181
▁ruk	-11.0182
▁pradaan	-11.0182
▁pratyeka	-11.0182
ଫ	-11.0183
▁सर्	-11.0183
থোক	-11.0185
▁jari	-11.0185
mfo	-11.0185
▁பல	-11.0185
▁rajyanaa	-11.0185
▁pravart	-11.0185
▁ইউ	-11.0187
▁adha	-11.0189
ப்பட	-11.0189
nand	-11.019
▁chhor	-11.0191
ᱥᱮ	-11.0191
बंध	-11.0191
▁aalaan	-11.0193
▁malum	-11.0193
सल	-11.0193
▁loge	-11.0193
▁ꯃꯁꯤ	-11.0195
▁লাগে	-11.0196
▁randu	-11.0197
mein	-11.0198
▁hotel	-11.0198
ल्लो	-11.0202
▁likhaa	-11.0203
ᱚ	-11.0204
নিক	-11.0207
▁kya	-11.0209
▁lairiba	-11.0209
▁thila	-11.0209
ഘ	-11.021
ছা	-11.021
▁આવેલ	-11.0211
purna	-11.0211
দান	-11.0211
▁rastriyo	-11.0213
saha	-11.0213
ीर	-11.0215
jab	-11.0217
▁nae	-11.0218
gz	-11.0218
ହି	-11.0219
thri	-11.0221
▁வர	-11.0221
▁taaraa	-11.0222
gṭhfx	-11.0223
▁تن	-11.0225
▁The	-11.0227
▁tarahan	-11.0229
ज्ञा	-11.0229
ांचा	-11.023
▁जाना	-11.0231
▁bahai	-11.0232
ᱵᱚᱨ	-11.0233
र्द	-11.0234
▁मार्च	-11.0236
▁ghatak	-11.0237
েও	-11.0237
ଳା	-11.0239
▁samagri	-11.024
▁chennai	-11.0241
64	-11.0241
টাই	-11.0243
▁science	-11.0244
▁প্ৰকাশ	-11.0244
▁आसामनि	-11.0244
▁alaa	-11.0244
ؤں	-11.0244
మే	-11.0246
িম	-11.0246
▁purn	-11.0246
▁lakshya	-11.0247
▁kadha	-11.0247
۲	-11.0249
ਯੋਗ	-11.0249
▁phee	-11.0249
▁bhairas	-11.0249
गाव	-11.0251
▁ᱢᱮᱱ	-11.0254
ḷ	-11.0255
▁tenu	-11.0256
দবা	-11.0257
▁sakadi	-11.0258
▁کراں	-11.0259
ᱵᱮ	-11.0259
gidamak	-11.0259
▁naiy	-11.0261
▁gang	-11.0262
▁सुविधा	-11.0263
khai	-11.0265
athmeek	-11.0267
مین	-11.0267
▁indiyagi	-11.0268
اط	-11.0268
ഗ്ര	-11.0268
ḍhrḷ	-11.0268
▁উচ্চ	-11.0269
ਾਸ	-11.0271
▁mukhyatve	-11.0272
▁ᱞᱮᱱ	-11.0273
▁ਦਿੱਤਾ	-11.0274
ilum	-11.0275
thiri	-11.0276
▁sibi	-11.0277
▁ٲنہ	-11.0278
▁grama	-11.0278
▁pilla	-11.028
▁aarr	-11.028
ன்ற	-11.0281
తీ	-11.0283
വ്	-11.0283
▁প্ৰায়	-11.0284
yaayi	-11.0284
ᱟᱹᱭ	-11.0285
inchha	-11.0285
▁hfmf	-11.0287
▁wyakti	-11.029
▁sake	-11.029
▁এজন	-11.0291
▁prakashit	-11.0293
▁ଫ	-11.0293
▁bed	-11.0293
ജി	-11.0293
▁ᱚᱠᱛᱚ	-11.0295
ett	-11.0295
पाद	-11.0296
ব্য	-11.0296
গুলি	-11.0299
▁gate	-11.0299
▁ଜଣ	-11.03
▁aarop	-11.0301
▁nazaam	-11.0301
▁શકે	-11.0302
rudh	-11.0302
▁قانون	-11.0303
▁چشمن	-11.0303
▁ਖਾ	-11.0304
ادر	-11.0305
▁prakat	-11.0308
کن	-11.0312
▁buland	-11.0313
▁85	-11.0313
▁पास	-11.0313
ralli	-11.0313
▁talika	-11.0316
તર	-11.0317
ത്തിന്	-11.0318
▁natak	-11.0318
▁زعفران	-11.0318
▁ଚା	-11.0321
▁lugg	-11.0322
▁نَے	-11.0328
▁prasidh	-11.0329
▁कल	-11.0329
▁تلٕ	-11.0329
മേ	-11.0329
▁prishth	-11.0329
োল	-11.0329
▁raksha	-11.033
bali	-11.0336
পন	-11.0337
isuttade	-11.0337
46	-11.0337
▁baaba	-11.0337
▁janasankhya	-11.0338
▁tru	-11.0339
▁grantha	-11.0339
▁hidayat	-11.0339
▁53	-11.0339
▁jilaame	-11.0339
▁bish	-11.034
▁desa	-11.0341
▁ছবি	-11.0342
▁ગામમાં	-11.0342
▁وتو	-11.0344
▁ചെയ്യ	-11.0344
▁ଘ	-11.0345
▁aif	-11.0346
మ్	-11.0346
▁kak	-11.0346
▁کرٕنۍ	-11.0346
▁alpa	-11.0347
▁spo	-11.0348
ౌ	-11.0349
mod	-11.0349
shyam	-11.0349
▁poroborti	-11.0352
▁सामान्य	-11.0352
▁ullekha	-11.0352
▁landan	-11.0353
▁conn	-11.0355
▁lfxfi	-11.0357
▁chaand	-11.0358
▁ਪਾ	-11.0359
▁waaro	-11.0361
▁دوسرے	-11.0362
▁itya	-11.0362
▁rasta	-11.0364
▁1992	-11.0364
▁oopar	-11.0364
▁cap	-11.0365
▁ḍṭha	-11.0366
▁jotum	-11.0366
▁پزِ	-11.0367
▁atirikt	-11.0367
ژھ	-11.0372
▁uchcha	-11.0373
ಿಸುವ	-11.0373
ન્ડ	-11.0373
▁होए	-11.0373
▁pum	-11.0374
▁camp	-11.0375
rṭha	-11.0376
unnath	-11.0377
vaaru	-11.0379
utundi	-11.0379
▁soma	-11.038
శా	-11.038
udan	-11.038
▁upayogi	-11.038
বাহ	-11.0381
ಯಿಂದ	-11.0382
▁یوٚد	-11.0383
▁گرد	-11.0384
▁ardo	-11.0385
▁hotna	-11.0385
▁ਰੱਖ	-11.0385
াত	-11.0386
murai	-11.0387
▁ᱞᱮᱫ	-11.0387
▁pehli	-11.0387
fxf	-11.0389
▁hatya	-11.0392
ance	-11.0392
▁پہ	-11.0393
▁نافہ	-11.0393
▁hoee	-11.0394
इयै	-11.0394
▁गण	-11.0395
▁କରାଯାଇ	-11.0395
୨	-11.0396
ଳି	-11.0396
▁rehnuma	-11.0399
கொள்ள	-11.0399
ଅ	-11.0399
త్త	-11.0401
▁puran	-11.0401
▁रही	-11.0402
▁niyamit	-11.0403
▁ledhu	-11.0403
روانچ	-11.0404
ाचें	-11.0404
▁chhot	-11.0404
▁padaarth	-11.0405
▁خانچ	-11.0405
▁aadha	-11.0406
▁چھٮ۪	-11.0406
▁kruta	-11.0406
▁آھن	-11.0408
▁batra	-11.0409
▁dhe	-11.0409
వర్	-11.041
▁aanaal	-11.041
▁సి	-11.041
▁ژھٹن	-11.0411
వర	-11.0412
▁ਵਾਲੇ	-11.0412
▁yojane	-11.0412
▁لیٖچھ	-11.0414
▁دانچ	-11.0414
pul	-11.0414
▁videsh	-11.0416
▁پیٖر	-11.0417
▁क्ल	-11.0418
▁pradhaan	-11.0419
▁veg	-11.0419
31	-11.042
▁ব্যক্তি	-11.0422
xokolok	-11.0423
thaaka	-11.043
llem	-11.0432
▁250	-11.0433
▁gei	-11.0434
നോ	-11.0435
▁kadh	-11.0436
▁است	-11.0437
▁bhala	-11.0439
▁ahmed	-11.044
▁tasveer	-11.0441
▁baed	-11.0441
▁protisthan	-11.0444
▁তথা	-11.0444
▁fut	-11.0444
টু	-11.0444
▁tahim	-11.0446
ଡ଼ି	-11.0447
ംഗ	-11.0449
▁miga	-11.0449
▁chali	-11.045
▁boll	-11.045
▁واپس	-11.0451
గి	-11.0451
▁nuksan	-11.0451
ன்ன	-11.0452
ikkunnath	-11.0452
ਥਾ	-11.0453
ುವುದ	-11.0453
▁ete	-11.0454
▁sajj	-11.0455
▁rahra	-11.0455
▁الم	-11.0456
▁فرمایا	-11.0456
ਾਮ	-11.0458
ِس	-11.0458
pjf	-11.0458
▁maee	-11.0459
▁aamar	-11.046
▁hisab	-11.0461
▁protistha	-11.0462
▁chhad	-11.0462
യം	-11.0462
▁chepp	-11.0463
▁btcni	-11.0463
▁sanchalan	-11.0464
lag	-11.0465
▁62	-11.0466
khatir	-11.0467
മോ	-11.0467
ardh	-11.0467
▁siva	-11.0467
▁lav	-11.0468
istunna	-11.0469
▁udaharan	-11.047
▁pruth	-11.0471
epachhi	-11.0472
▁ataa	-11.0472
▁হাত	-11.0472
thira	-11.0478
▁atya	-11.0479
▁lou	-11.048
▁koda	-11.048
বেশ	-11.0483
61	-11.0485
▁pramana	-11.0486
▁chithra	-11.0488
▁puraskaar	-11.049
▁প্রথম	-11.049
▁ਮਿਲ	-11.0492
୍ୱ	-11.0492
▁konao	-11.0493
ारा	-11.0494
▁prada	-11.0496
▁माग	-11.0497
▁grontho	-11.0498
▁maathram	-11.0498
फ्	-11.0498
▁nom	-11.0498
▁ادب	-11.0498
سا	-11.0499
▁daabi	-11.05
▁taap	-11.0501
bil	-11.0501
▁हुआ	-11.0502
▁kalakar	-11.0502
▁kashmir	-11.0504
49	-11.0504
ഡി	-11.0507
▁अन्	-11.0507
▁mavax	-11.0507
▁poshak	-11.0508
ppaduthth	-11.0509
▁پل	-11.051
▁cent	-11.051
ḍṭhk	-11.0512
▁tash	-11.0515
▁sangat	-11.0516
▁baari	-11.0518
ష్	-11.0518
▁bhayo	-11.0519
▁चाहिए	-11.052
▁dhyaan	-11.0521
▁পৰ	-11.0523
বৰ	-11.0523
▁ভাৰতীয়	-11.0524
jukta	-11.0524
▁ᱨᱤ	-11.0525
▁sobb	-11.0525
▁ऊ	-11.0527
▁റ	-11.0528
▁অ্যা	-11.0528
▁ਵੱਖ	-11.0529
aiyum	-11.0529
▁sum	-11.053
ங்கள	-11.053
सम	-11.0532
▁sue	-11.0532
▁bhed	-11.0532
▁नियम	-11.0534
iddaru	-11.0534
▁namma	-11.0535
yane	-11.0535
▁cpṭ	-11.0536
▁joda	-11.0536
▁बीच	-11.0536
neeti	-11.0539
न्छ	-11.0539
▁اُن	-11.054
▁jwoga	-11.0541
টোৰ	-11.0542
ંક	-11.0542
uthal	-11.0542
▁qaabil	-11.0543
▁pita	-11.0543
▁chhih	-11.0544
▁આવી	-11.0544
ाले	-11.0544
▁raheka	-11.0545
સર	-11.0546
▁avi	-11.0546
▁हुन्	-11.0548
▁ᱛᱚ	-11.0549
ꯂꯣꯟ	-11.055
▁আস	-11.055
▁tada	-11.0552
ces	-11.0552
▁फार	-11.0553
▁vfo	-11.0553
riyo	-11.0554
▁usne	-11.0555
ଯାଇ	-11.0556
▁अधिकारी	-11.0556
▁varum	-11.0558
▁संग	-11.0559
▁پاڻ	-11.0559
▁santa	-11.0559
▁vovo	-11.056
▁هئا	-11.056
▁cum	-11.056
▁saji	-11.0561
പാ	-11.0561
▁ختم	-11.0561
కర	-11.0562
▁꯴	-11.0562
▁rupe	-11.0563
▁waziraizam	-11.0564
otwo	-11.0565
▁virus	-11.0566
▁આપ	-11.0567
▁nag	-11.0567
▁জল	-11.0567
▁upp	-11.0568
टक	-11.0569
yaha	-11.0569
▁jho	-11.0572
▁nepalko	-11.0572
द्वारा	-11.0574
▁अफ	-11.0574
ಳು	-11.0574
હી	-11.0574
▁besh	-11.0575
▁kahaan	-11.0575
▁abhavat	-11.0575
ᱟᱹᱨ	-11.0576
▁क्रि	-11.0576
92	-11.0576
▁ਇੰ	-11.0577
ोल	-11.0577
▁mrit	-11.0577
▁yatra	-11.0577
▁sent	-11.0578
▁নো	-11.0579
▁insaan	-11.0579
چر	-11.0579
▁पश्चिम	-11.0579
▁लोगो	-11.058
▁bachon	-11.058
ंप	-11.0581
ପି	-11.0581
▁abashyaka	-11.0582
vacchu	-11.0588
▁ora	-11.0591
ുകയും	-11.0592
▁ہا	-11.0593
▁tangki	-11.0593
▁dow	-11.0594
bhumi	-11.0595
bhed	-11.0595
▁जात	-11.0596
ছেন	-11.0597
▁modee	-11.0598
▁vishesha	-11.0599
▁ᱨᱟᱡᱽ	-11.0599
▁सै	-11.0599
▁kharaab	-11.0601
hali	-11.0602
চিত	-11.0602
53	-11.0602
▁ਤੱਕ	-11.0604
▁parvat	-11.0604
▁جم	-11.0605
▁samjh	-11.0605
▁hae	-11.0608
▁adesh	-11.0609
▁piri	-11.0611
▁स्म	-11.0611
▁brahman	-11.0611
▁बल	-11.0612
▁सार	-11.0615
▁lafz	-11.0615
▁সহ	-11.0617
▁आफाद	-11.0618
▁sud	-11.0619
▁সৃষ্টি	-11.0619
प्त	-11.062
▁train	-11.0621
▁सुन	-11.0621
▁57	-11.0624
▁nh	-11.0625
kshep	-11.0625
▁ద్వారా	-11.0627
ल्यान	-11.0628
َس	-11.0629
thaar	-11.0629
▁1950	-11.0629
aagavum	-11.0629
▁ꯂꯝ	-11.063
sthaan	-11.063
▁office	-11.063
▁kaera	-11.0631
bhara	-11.0632
▁مف	-11.0633
▁పు	-11.0634
koodiya	-11.0636
▁ജന	-11.0636
ுள்ள	-11.0638
▁bereka	-11.0638
59	-11.0638
▁৮	-11.0639
▁xomoy	-11.064
▁मोननाय	-11.0641
مب	-11.0642
▁aspatal	-11.0643
▁kitt	-11.0644
▁घो	-11.0647
nyas	-11.0647
▁ନିଜ	-11.0647
مر	-11.0647
▁ṭṭhux	-11.0651
▁ḍft	-11.0653
▁qabool	-11.0654
▁পানী	-11.0658
▁লৌ	-11.0659
▁शरीर	-11.066
तार	-11.066
▁meen	-11.066
▁ardha	-11.0661
▁saudi	-11.0661
▁nayan	-11.0665
▁koha	-11.0665
▁baais	-11.0667
▁ताका	-11.0669
▁tapa	-11.0671
▁chara	-11.0671
▁tashech	-11.0672
ᱨᱳ	-11.0673
ੱਕ	-11.0674
▁buddhi	-11.0675
▁pok	-11.0677
▁kannada	-11.0678
▁bisi	-11.0679
ष्ठ	-11.068
▁mere	-11.0682
▁ಆಗ	-11.0686
▁aayu	-11.0687
▁sangraha	-11.0688
▁ਪੰਜਾਬ	-11.0689
▁pr	-11.069
▁mandala	-11.0691
▁सिद्ध	-11.0692
aea	-11.0693
▁પાણી	-11.0697
वय	-11.0698
▁patt	-11.0699
▁സാ	-11.07
▁मेरे	-11.07
▁garam	-11.0701
thare	-11.0702
▁bhaal	-11.0702
naijwng	-11.0706
34	-11.0706
▁വെ	-11.0706
யும்	-11.0707
▁naame	-11.0708
त्वा	-11.071
▁shastra	-11.0711
▁dilee	-11.0711
▁kalamnanwi	-11.0713
Q	-11.0713
निया	-11.0713
nuk	-11.0715
ಕೆ	-11.0716
ଦ୍	-11.0718
▁مک	-11.0718
यि	-11.0719
▁पहले	-11.072
▁99	-11.072
▁ਪੀ	-11.072
▁মূল	-11.0721
▁திரு	-11.0721
▁दिए	-11.0721
▁வெளி	-11.0722
maha	-11.0722
మ్మ	-11.0723
হৰ	-11.0726
▁صورت	-11.0726
mool	-11.0727
ୈ	-11.0729
bhaav	-11.0729
▁isi	-11.073
▁bitangmwn	-11.0733
▁aalimi	-11.0734
വരെ	-11.0734
▁ग्राम	-11.0735
ture	-11.0736
▁ര	-11.0737
▁photo	-11.0738
jfo	-11.0738
धन	-11.074
یف	-11.0741
▁rajneeti	-11.0741
▁राष्ट्र	-11.0743
▁समस्या	-11.0743
▁बायदि	-11.0745
▁mukhalif	-11.0745
ലോ	-11.0746
▁anan	-11.0747
▁graama	-11.0747
ꯟꯕ	-11.0747
▁professor	-11.0748
▁خیال	-11.0748
▁tuhan	-11.0748
ilirunthu	-11.075
▁poro	-11.0751
▁आसात	-11.0754
▁ꯑꯣꯢ	-11.0754
▁kahein	-11.0755
ବାର	-11.0757
▁islami	-11.0759
▁chatur	-11.0759
odu	-11.0759
ിത	-11.076
▁ᱛᱟᱞᱟ	-11.0761
▁shaye	-11.0762
▁gher	-11.0762
▁modhyo	-11.0763
▁taaha	-11.0763
▁هئي	-11.0763
జ్	-11.0764
▁مزید	-11.0764
bul	-11.0766
▁Ba	-11.0768
▁યુ	-11.0768
▁asatat	-11.0768
▁biyo	-11.0768
▁gab	-11.077
▁1995	-11.0774
▁dhana	-11.0775
▁মাজত	-11.0775
▁dhaan	-11.0776
▁agency	-11.0777
▁आफादगिरि	-11.0778
▁taakah	-11.0779
▁nirva	-11.0779
ుతుంది	-11.0781
▁அவர்	-11.0781
▁yeye	-11.0782
ᱯᱷᱟ	-11.0783
ঙ্ক	-11.0785
છ	-11.0785
ᱩᱨ	-11.0789
jae	-11.0791
బ్	-11.0791
ਜੀ	-11.0792
▁eri	-11.0794
▁bataa	-11.0794
kwobw	-11.0795
▁54	-11.0795
xokol	-11.0795
▁चाह	-11.0796
▁karkat	-11.0796
▁alawa	-11.0797
▁biban	-11.0797
மே	-11.0797
▁पत्र	-11.0799
▁octobor	-11.0799
▁teer	-11.0799
▁ଅନୁ	-11.08
▁laksha	-11.08
▁saamanya	-11.08
▁ஆம்	-11.08
ವರು	-11.0801
ppil	-11.0803
▁opp	-11.0804
ھي	-11.0806
▁kilometerach	-11.0806
▁ٹو	-11.0807
omaa	-11.0809
▁kapa	-11.081
▁सोद्रोमा	-11.081
▁yete	-11.081
vaadi	-11.0814
▁प्रक्रिया	-11.0814
▁sapta	-11.0816
▁group	-11.0817
kant	-11.0819
▁karyo	-11.0822
ayaam	-11.0822
भाग	-11.0823
▁anj	-11.0823
siddh	-11.0823
▁खालामनाय	-11.0823
▁chhathi	-11.0824
▁sher	-11.0824
▁puur	-11.0824
▁cheyya	-11.0824
▁baah	-11.0827
▁noow	-11.0827
ṭfo	-11.0827
▁utpatti	-11.0829
▁مسلمان	-11.083
▁jangal	-11.0831
▁ରାଜ୍ୟ	-11.0831
▁mohan	-11.0832
▁जर	-11.0832
▁بڑی	-11.0833
डिया	-11.0834
▁સિ	-11.0836
▁viman	-11.0838
▁ghanee	-11.0838
▁gaav	-11.0838
▁point	-11.084
▁tw	-11.084
▁million	-11.084
▁ض	-11.0842
गासिनो	-11.0843
गम	-11.0844
▁دیگر	-11.0844
▁നിർ	-11.0845
▁kamal	-11.0845
▁noai	-11.0846
▁মতম	-11.0847
▁ଥିବା	-11.0847
्रा	-11.0848
الی	-11.0849
▁sakchha	-11.0849
लेल्या	-11.0849
▁लिख	-11.085
▁yuddha	-11.0852
anika	-11.0854
▁00	-11.0855
ichathu	-11.0855
jonok	-11.0855
▁সব	-11.0856
▁जिल्लानि	-11.0858
▁vaccine	-11.0859
ਸ਼ੀ	-11.0859
بت	-11.0859
▁jeun	-11.086
▁sow	-11.0861
▁فرما	-11.0862
▁୫	-11.0865
▁khushi	-11.0867
▁व्या	-11.0867
▁नां	-11.0869
cin	-11.0869
स्प	-11.087
▁kaafee	-11.0871
▁सोर	-11.0871
8	-11.0872
▁dehshat	-11.0872
▁samadhan	-11.0874
▁darja	-11.0876
ংবা	-11.0877
▁१५	-11.088
▁kshetrak	-11.0881
▁1984	-11.0881
▁swmwndw	-11.0883
▁ᱵᱷᱤ	-11.0884
পো	-11.0885
▁padaa	-11.0885
ਤੇ	-11.0885
▁goi	-11.0886
▁বো	-11.0887
୩	-11.0887
udaiya	-11.0888
पद	-11.089
▁zakar	-11.0891
cial	-11.0892
rṭhf	-11.0893
▁market	-11.0893
▁ایسے	-11.0894
▁swee	-11.0894
▁বিভাগ	-11.0895
ஞ்ச	-11.0899
▁bollen	-11.0901
ꯁꯤꯟ	-11.0903
▁pran	-11.0903
फ्रा	-11.0905
▁ھي	-11.0907
ngki	-11.0907
▁hisabe	-11.0909
দ্য	-11.0909
▁vhad	-11.0911
swarup	-11.0913
▁پک	-11.0914
▁ꯂꯩꯕ	-11.0914
▁foji	-11.0915
▁बक्ख	-11.0915
फै	-11.0916
▁banaav	-11.0916
▁sheikh	-11.0917
▁bail	-11.0918
▁aahaar	-11.0918
0,000	-11.0919
രോ	-11.092
▁tareeq	-11.0921
ଞ୍ଚ	-11.0922
▁kalaasaala	-11.0922
▁kelya	-11.0923
▁yey	-11.0925
▁Z	-11.0926
धे	-11.0928
aip	-11.093
▁oxygen	-11.093
▁sahara	-11.0931
fg	-11.0931
னா	-11.0934
ூர்	-11.0935
দেৱ	-11.0936
িব	-11.0937
▁hector	-11.0938
▁voarul	-11.0939
kand	-11.0939
▁german	-11.0939
63	-11.094
రే	-11.0943
▁ꯎ	-11.0946
૪	-11.0946
▁સુધી	-11.0947
▁byabostha	-11.0949
യില	-11.0955
▁marg	-11.0957
▁shuk	-11.0959
ftk	-11.096
ಂಚ	-11.096
▁xongit	-11.0961
matta	-11.0961
fñx	-11.0962
shila	-11.0962
▁parivartan	-11.0963
▁mard	-11.0963
ੜੇ	-11.0963
▁tadaa	-11.0965
▁ᱟᱠᱟᱱ	-11.0965
▁jhaala	-11.0967
مہ	-11.0968
▁prob	-11.0968
▁ladki	-11.0968
▁stara	-11.0968
▁یاد	-11.0969
▁datta	-11.0971
▁۱	-11.0971
▁56	-11.0972
▁jaisa	-11.0973
▁rashtrapati	-11.0974
▁অসমৰ	-11.0975
▁bhashe	-11.0976
ल्ला	-11.0976
▁zwklf	-11.0977
▁uddesh	-11.0977
▁देखि	-11.0977
ற்க	-11.0977
षा	-11.098
▁swe	-11.0985
ময়	-11.0985
गै	-11.0986
▁ettavum	-11.0988
▁hangam	-11.0989
▁vṭhf	-11.099
▁अध्यक्ष	-11.099
اني	-11.0991
▁শেষ	-11.0993
arana	-11.0993
ᱟᱹᱣ	-11.0993
▁ভাৰত	-11.0994
▁utpadana	-11.0995
▁sudhar	-11.0995
atthil	-11.0996
▁yaavude	-11.0996
▁jhaali	-11.0996
▁samarthan	-11.0999
▁والا	-11.0999
ुं	-11.0999
ধা	-11.0999
avashya	-11.1
▁akbar	-11.1001
▁വേ	-11.1002
thode	-11.1002
ttin	-11.1003
▁thira	-11.1005
▁درج	-11.1007
ింగ్	-11.1007
▁khil	-11.1008
51	-11.1008
kula	-11.1009
वती	-11.1009
▁motaa	-11.1009
▁lipi	-11.1011
prasad	-11.1011
▁liaa	-11.1011
▁प्रथम	-11.1011
▁arabi	-11.1013
లే	-11.1013
ᱰᱚ	-11.1015
फोराव	-11.1015
▁urja	-11.1015
▁ৰাজ	-11.1016
▁meetei	-11.1017
▁kayaa	-11.1017
▁نالو	-11.1017
▁jwb	-11.1019
▁swli	-11.102
ukka	-11.102
nilai	-11.102
▁ಸಮ	-11.1021
ക്കുന്ന	-11.1021
▁തു	-11.1021
▁ওইর	-11.1022
▁siri	-11.1022
▁god	-11.1023
▁bahaar	-11.1023
▁akranto	-11.1024
grah	-11.1024
ौं	-11.1024
▁ᱪᱚ	-11.1026
▁dair	-11.1028
بي	-11.1028
▁वाढ	-11.1028
▁ᱫᱩ	-11.1029
▁ବୋଲି	-11.1029
▁zab	-11.1032
▁لفظ	-11.1032
madhil	-11.1033
ङ्	-11.1034
▁jyaa	-11.1035
▁இட	-11.1037
ગી	-11.1037
iddu	-11.1037
اً	-11.1038
lyaan	-11.1039
▁ઇ	-11.104
ulanu	-11.104
ꯗꯦ	-11.104
▁paase	-11.1042
षण	-11.1042
khonot	-11.1042
▁poorva	-11.1043
▁election	-11.1043
▁shaalaa	-11.1044
▁राष्ट्रीय	-11.1044
▁ابو	-11.1044
যোগ	-11.1044
▁sakriya	-11.1045
▁गरि	-11.1046
▁عورت	-11.1046
ண்ண	-11.1046
ᱮᱭᱟ	-11.1047
▁رک	-11.1049
▁Na	-11.1049
▁puth	-11.1052
▁ꯃꯍꯥꯛꯀꯤ	-11.1052
yukta	-11.1053
▁namak	-11.1053
tant	-11.1055
▁zamah	-11.1055
▁aau	-11.1056
ોમાં	-11.1056
▁ਪਿ	-11.1058
▁केला	-11.1059
▁bao	-11.1064
yug	-11.1064
▁awo	-11.1064
ତୁ	-11.1065
▁aang	-11.1066
رِ	-11.1066
▁mareez	-11.1066
▁thulo	-11.1067
▁jilaak	-11.1067
▁munna	-11.1067
▁لکھ	-11.1068
▁aagum	-11.1069
ानी	-11.1069
▁maata	-11.1069
ḍao	-11.107
▁karajae	-11.107
▁amrica	-11.1071
▁পাৰি	-11.1071
्दै	-11.1072
▁qṭhf	-11.1073
▁unaki	-11.1073
▁dush	-11.1073
▁যোগ	-11.1077
▁இருந்த	-11.1078
्ता	-11.1078
▁farse	-11.1079
▁atai	-11.1079
▁xobdo	-11.108
▁bhaari	-11.1081
jari	-11.1081
யம்	-11.1083
▁azeem	-11.1083
दृश	-11.1083
தில்	-11.1083
जर	-11.1083
ارت	-11.1083
▁لڳ	-11.1084
▁ᱠᱚᱢ	-11.1084
phama	-11.1084
▁बंद	-11.1085
తం	-11.1085
▁குறை	-11.1085
▁नुनो	-11.1085
▁vibhaga	-11.1086
▁jalyar	-11.1086
▁sthala	-11.1086
chaal	-11.1088
▁shro	-11.1088
ન્સ	-11.1089
आर	-11.109
ਿੱ	-11.1091
ḍhcf	-11.1092
▁রাজ	-11.1092
ियम	-11.1092
von	-11.1092
ڊي	-11.1093
▁raay	-11.1094
▁ᱡᱚᱛᱚ	-11.1095
▁ایسا	-11.1095
▁স্থান	-11.1097
▁miraa	-11.1098
▁ਬੀ	-11.11
▁सङ्	-11.11
▁bungdwng	-11.1101
▁উল্লেখ	-11.1101
▁sarafara	-11.1102
▁dhair	-11.1102
▁ಶಿ	-11.1103
▁ప్రభుత్వ	-11.1104
▁biyen	-11.1104
pali	-11.1105
▁galla	-11.1105
▁ਫ਼	-11.1106
▁জে	-11.111
sabhme	-11.1111
ikkuka	-11.1111
▁las	-11.1113
tthil	-11.1113
▁moor	-11.1114
▁poathu	-11.1115
▁mulug	-11.1115
▁abhivruddhi	-11.1116
आई	-11.1117
ট্র	-11.1117
▁amma	-11.1118
▁free	-11.1119
▁chhote	-11.1121
▁uppl	-11.1124
▁web	-11.1126
▁bujh	-11.1127
▁বছর	-11.1127
▁ಮೇಲೆ	-11.1127
ਏ	-11.1127
▁सिगां	-11.1128
ꯦꯜ	-11.1133
kil	-11.1133
alelya	-11.1134
▁untundi	-11.1135
▁مق	-11.1136
▁mya	-11.1136
▁aim	-11.114
▁fali	-11.1141
صح	-11.1141
▁andolan	-11.1141
▁rakhi	-11.1141
▁ಏ	-11.1141
▁puk	-11.1141
▁72	-11.1143
চার	-11.1143
▁قرار	-11.1143
▁تعلیم	-11.1143
▁ᱠᱩᱲᱤ	-11.1144
▁ekta	-11.1144
pper	-11.1144
khana	-11.1145
ੜੀ	-11.1145
▁पुस्तक	-11.1146
▁दू	-11.1147
நிலை	-11.1149
▁obhinoy	-11.1149
▁pashupalan	-11.1152
poth	-11.1152
ഷ്	-11.1152
▁मू	-11.1153
னர்	-11.1153
▁कुल	-11.1153
▁apar	-11.1154
ुवा	-11.1156
jara	-11.1156
▁माध्यम	-11.1157
▁फिल्म	-11.1157
▁اڳ	-11.1158
▁mithila	-11.116
यों	-11.116
▁ᱪᱤ	-11.116
▁1993	-11.116
▁punjabi	-11.1161
▁ହେବା	-11.1162
▁भएका	-11.1163
▁قیمت	-11.1163
નિ	-11.1164
وٹ	-11.1164
▁tameer	-11.1166
▁public	-11.1169
▁yim	-11.1171
താണ്	-11.1172
हरूमा	-11.1172
▁kungpung	-11.1172
▁tera	-11.1172
▁स्वा	-11.1172
▁بج	-11.1172
മു	-11.1173
श्य	-11.1174
ിന്	-11.1174
gruh	-11.1175
▁hukmaran	-11.1177
▁కేంద్రం	-11.1178
▁ꯇꯥ	-11.1179
ਰਾਂ	-11.1179
bahadur	-11.1182
▁biyabni	-11.1184
aaru	-11.1186
▁lakhya	-11.1187
കൂട	-11.1189
▁kaane	-11.1189
▁tarika	-11.119
्ल	-11.119
ोप	-11.1191
▁mawa	-11.1192
ટો	-11.1192
▁atta	-11.1192
▁nagrik	-11.1193
নার	-11.1194
▁paada	-11.1195
चर	-11.1196
▁கரு	-11.1196
ponno	-11.1196
▁mobail	-11.1197
▁kareene	-11.1197
▁ਸਰਕਾਰ	-11.1197
▁ভে	-11.1197
ُک	-11.1198
खर	-11.12
▁katti	-11.1201
▁matri	-11.1201
▁पुरस्कार	-11.1202
▁nirbason	-11.1202
▁ઈ	-11.1203
▁ہاتھ	-11.1203
▁hagṭhf	-11.1203
▁রে	-11.1204
▁जोड	-11.1205
paak	-11.1205
▁misaal	-11.1206
▁आह्	-11.1207
▁hao	-11.1208
▁رنگ	-11.1208
▁tag	-11.121
▁ꯀꯥ	-11.121
▁likha	-11.1211
▁kisan	-11.1213
chilo	-11.1214
▁tunlai	-11.1214
thiba	-11.1214
يٽ	-11.1215
▁mukt	-11.1215
▁onuxori	-11.1219
▁vyakt	-11.1221
▁masihare	-11.1222
▁miim	-11.1223
▁dhorm	-11.1223
▁kanna	-11.1225
▁stan	-11.1227
▁lflax	-11.1227
▁vfñ	-11.1229
▁avu	-11.1231
চু	-11.1232
uhanan	-11.1232
ख्या	-11.1233
▁स्वास्थ्य	-11.1233
▁zen	-11.1233
▁ନାହିଁ	-11.1234
కూ	-11.1234
▁1986	-11.1234
endare	-11.1236
িল	-11.1236
▁ନେଇ	-11.1237
▁ওপৰত	-11.1237
▁এন	-11.1238
ির	-11.124
▁उत्	-11.124
ହେ	-11.1241
પ્	-11.1241
▁কাৰ্য	-11.1241
▁sup	-11.1243
▁प्रो	-11.1243
▁onusthan	-11.1244
▁बढ	-11.1245
▁तरह	-11.1245
▁gfñ	-11.1245
્યો	-11.1246
ପରି	-11.1246
▁தலை	-11.1247
▁promod	-11.1248
▁paryant	-11.1248
ᱷ	-11.1248
▁thitta	-11.1252
▁kadime	-11.1253
▁dwhwrwm	-11.1253
▁padta	-11.1253
▁garera	-11.1256
▁ꯀꯣ	-11.1257
▁laagi	-11.1257
▁صف	-11.1258
▁ము	-11.1259
ꯄꯤ	-11.126
▁sra	-11.1261
▁mush	-11.1262
ण्या	-11.1262
▁sthapon	-11.1263
▁prayatna	-11.1264
▁niru	-11.1265
▁ডে	-11.1266
▁labw	-11.1267
▁mojood	-11.1268
▁chash	-11.1268
▁बोल	-11.1269
▁ਹੁੰਦਾ	-11.127
▁sainya	-11.1271
irunnu	-11.1274
▁vividh	-11.1274
adaaniki	-11.1275
▁بارے	-11.1277
ꯁꯥ	-11.1278
ᱫᱷᱤ	-11.1279
▁bfmux	-11.128
ंगे	-11.1281
dine	-11.1281
▁hund	-11.1281
▁xfvft	-11.1282
▁avastha	-11.1282
▁लामा	-11.1282
گل	-11.1283
▁dhwrwm	-11.1284
▁অসমীয়া	-11.1285
▁وس	-11.1286
▁amra	-11.1286
bhasha	-11.1287
▁ਪੂਰ	-11.1287
தான்	-11.1288
▁vazhangk	-11.1289
ᱪᱷᱟ	-11.1289
▁سامنے	-11.129
ndiyoon	-11.1291
▁gaja	-11.1291
▁surakshit	-11.1291
▁pariksha	-11.1291
▁maphama	-11.1292
▁کیونکہ	-11.1293
▁dehli	-11.1295
▁hktax	-11.1296
vargal	-11.1297
▁ꯃꯥ	-11.1297
▁khalee	-11.1301
▁बहु	-11.1301
दन	-11.1302
▁᱐ᱮ	-11.1302
▁नर	-11.1302
ৰাই	-11.1302
▁nabha	-11.1302
▁utth	-11.1303
▁mohabat	-11.1303
▁bhul	-11.1304
یڈ	-11.1305
꯰꯰	-11.1306
▁rabb	-11.1307
ٹس	-11.1307
▁ہوگا	-11.1307
▁୪	-11.1308
▁maram	-11.1308
▁hang	-11.131
▁gaglwb	-11.131
cṭh	-11.1312
▁behatar	-11.1314
▁મુખ્ય	-11.1316
▁ಎಂಬ	-11.1317
▁bou	-11.1318
▁shaikh	-11.132
xṭ	-11.1322
jhan	-11.1324
▁runn	-11.1324
▁پولیس	-11.1324
▁ball	-11.1324
▁jamdi	-11.1326
▁mahnu	-11.1326
tfx	-11.1327
سٹر	-11.1328
▁suprem	-11.1328
▁अज	-11.1328
▁nirbhar	-11.1329
▁رات	-11.133
स्व	-11.1332
▁ide	-11.1332
▁anjad	-11.1332
भन्दा	-11.1333
खी	-11.1334
▁sharooa	-11.1334
▁چند	-11.1334
▁ഇത്	-11.1335
ங்களை	-11.1336
عی	-11.1336
▁हासल	-11.1338
ਿਊ	-11.1339
▁bhab	-11.1339
ফি	-11.1339
ڑھ	-11.134
जू	-11.1341
▁zan	-11.1341
▁ichch	-11.1342
▁unde	-11.1342
▁mono	-11.1343
▁vyav	-11.1347
खान्थि	-11.1347
▁ब्र	-11.1348
▁ଜଣେ	-11.1348
phala	-11.1348
▁bhawan	-11.1351
▁barog	-11.1351
▁maati	-11.1352
▁1972	-11.1352
ದ್ಯ	-11.1353
rikka	-11.1356
रूप	-11.1356
▁chinna	-11.1358
▁siyt	-11.1359
▁vatt	-11.136
▁jekara	-11.1361
▁లే	-11.1362
▁thaka	-11.1362
▁maatha	-11.1362
▁जमा	-11.1362
▁ᱟᱭᱢᱟ	-11.1362
▁daryaa	-11.1364
▁jaandi	-11.1364
▁gṭha	-11.1365
▁thamba	-11.1365
▁ڌ	-11.1365
▁য়াও	-11.1365
▁ताणें	-11.1365
▁جنھن	-11.1365
ণ্	-11.1366
▁perum	-11.1367
▁jeebon	-11.1371
▁havaa	-11.1372
▁panda	-11.1373
▁halanki	-11.1376
يم	-11.1376
▁مُ	-11.1379
▁salaam	-11.138
▁miyaan	-11.138
▁baaqi	-11.1381
ಜೆ	-11.1381
bong	-11.1381
▁ᱞᱚ	-11.1381
बल	-11.1382
▁گڏ	-11.1382
sthe	-11.1383
▁kaf	-11.1384
riyal	-11.1384
K	-11.1386
▁થ	-11.1387
ᱣᱤ	-11.1387
▁premi	-11.1387
54	-11.1387
பெ	-11.1389
▁bhaarti	-11.1389
▁64	-11.1394
▁خبر	-11.1395
গ্রাম	-11.1396
▁seithu	-11.1397
▁murti	-11.1399
ڑے	-11.14
▁aarokhyi	-11.1402
▁bacche	-11.1402
पो	-11.1404
▁sadharana	-11.1405
▁कुसै	-11.1406
दास	-11.1407
▁ghum	-11.1407
▁نظام	-11.1407
▁vajon	-11.1408
▁बाजार	-11.1409
▁usey	-11.1409
▁বলে	-11.141
daran	-11.1412
ꯐꯝ	-11.1416
▁wnswlni	-11.1417
▁মতে	-11.1417
ہے	-11.1418
▁sangeeta	-11.142
▁मिरु	-11.1421
▁anumati	-11.1421
اش	-11.1421
▁cases	-11.1422
▁ঘৰ	-11.1422
▁حکم	-11.1422
▁जीव	-11.1425
chyo	-11.1425
▁aind	-11.1427
shodh	-11.1428
▁sohor	-11.1429
ththira	-11.1431
ଟ୍	-11.1433
▁आए	-11.1433
ଖା	-11.1434
টাৰ	-11.1434
vidha	-11.1438
▁nimante	-11.144
▁1994	-11.1443
▁gyaan	-11.1443
▁माल	-11.1445
ડે	-11.1446
ड्या	-11.1449
usake	-11.145
▁bangsin	-11.1451
W	-11.1451
faq	-11.1451
ഫ്	-11.1451
▁zaroor	-11.1451
খনৰ	-11.1453
▁ohaa	-11.1454
▁nirdeshak	-11.1456
▁انداز	-11.1456
▁mitinw	-11.1457
▁wata	-11.1457
ikarana	-11.1458
ക്കി	-11.1458
؛	-11.1459
▁اُس	-11.1461
▁أ	-11.1462
ᱟᱹᱨᱤ	-11.1464
▁pattana	-11.1465
▁tusin	-11.1465
khaatir	-11.1466
▁حال	-11.1466
fḍ	-11.1466
▁hen	-11.1467
▁chh	-11.1468
▁taf	-11.1468
▁ajlaas	-11.1468
ਜ਼ਾ	-11.1468
▁bidi	-11.1469
पत्र	-11.1469
▁बिजेपि	-11.1471
छु	-11.1471
▁jaalo	-11.1472
ଘ	-11.1472
▁mudd	-11.1473
ುತ್ತಾರೆ	-11.1474
જન	-11.1475
▁nehatari	-11.1477
▁rwka	-11.1477
▁निर्देश	-11.1478
▁majmu	-11.1479
▁यांनी	-11.1482
▁ꯗꯒꯤ	-11.1483
▁rom	-11.1483
డానికి	-11.1484
केँ	-11.1484
क़	-11.1484
▁bimari	-11.1486
▁bodh	-11.1486
▁poshan	-11.1487
ayaah	-11.1488
▁laki	-11.149
▁फल	-11.149
▁adheen	-11.1491
க்கப்பட்ட	-11.1491
जानाय	-11.1494
▁calli	-11.1495
▁அமை	-11.1495
مپ	-11.1496
▁mahaka	-11.1497
ਿਸ	-11.1497
ଗ୍ର	-11.1498
ᱢᱟᱨ	-11.15
ꯗꯨꯅ	-11.1501
▁hotya	-11.1502
▁moon	-11.1502
▁ᱟᱠᱟᱫᱟ	-11.1502
cara	-11.1503
▁اهو	-11.1503
Global	-11.1503
bang	-11.1503
▁ಸ್ವ	-11.1504
▁दोलोनि	-11.1506
▁ਕੰਮ	-11.1507
▁ٽي	-11.1507
▁chor	-11.1508
▁૨	-11.1508
▁khung	-11.1509
▁lax	-11.151
▁सबै	-11.151
▁muka	-11.1511
वर्त	-11.1511
▁ᱪᱮ	-11.1512
ল্লি	-11.1513
▁port	-11.1514
▁neu	-11.1514
त्ता	-11.1515
▁alo	-11.1516
▁देने	-11.1516
▁laker	-11.1517
saki	-11.152
▁mamla	-11.1521
▁kendri	-11.1522
ppin	-11.1523
ڇ	-11.1523
ngkalil	-11.1523
▁rwja	-11.1524
xar	-11.1524
ेश्वर	-11.1527
▁ஆண்டு	-11.1528
▁aawaz	-11.153
▁عدالت	-11.1532
▁گه	-11.1532
ḍhr	-11.1532
▁cheythu	-11.1533
▁rahh	-11.1533
ാസ	-11.1534
▁kelavu	-11.1534
▁heuchhi	-11.1534
▁ସମ	-11.1536
▁kapp	-11.1538
ಸರ	-11.1538
ᱮᱱ	-11.1539
enduku	-11.1539
▁xobha	-11.1539
▁sakade	-11.154
ٹری	-11.154
▁komm	-11.1544
ச்சி	-11.1545
▁taja	-11.1546
▁tagg	-11.1547
طل	-11.1548
▁conference	-11.1549
▁અન્ય	-11.1549
▁nirdeshan	-11.155
▁सुर	-11.1551
▁xex	-11.1553
▁ஊ	-11.1554
raja	-11.1554
▁କେ	-11.1555
ᱱᱟᱹ	-11.1555
▁सः	-11.1556
vide	-11.1556
52	-11.1557
▁मार्ग	-11.1558
▁حد	-11.1558
▁matamada	-11.1558
▁क्रिकेट	-11.1558
▁হৌজিক	-11.1559
▁dike	-11.156
▁પે	-11.156
▁আইন	-11.1562
ড়ে	-11.1563
▁baala	-11.1564
▁लक्ष	-11.1564
▁qaid	-11.1565
ையும்	-11.1566
सभक	-11.1566
▁مولانا	-11.1567
tuwe	-11.1569
▁Te	-11.157
▁mazhab	-11.1571
▁aamerika	-11.1572
ಮೀ	-11.1572
▁شهر	-11.1572
▁bfmuḍhx	-11.1572
ുമ	-11.1575
ിരിക്ക	-11.1575
ంటి	-11.1577
ൂർ	-11.1578
ଧି	-11.1578
labh	-11.1578
chand	-11.1579
▁olympic	-11.1579
▁kayaeen	-11.158
▁पू	-11.158
ത്തിലെ	-11.1582
▁karobar	-11.1583
▁korechen	-11.1584
▁ڈاکٹر	-11.1585
lfx	-11.1585
▁prava	-11.1586
ர்கள்	-11.1586
▁sakay	-11.1586
▁jhan	-11.1586
▁᱐	-11.1588
व्हा	-11.159
eeo	-11.159
రె	-11.1591
▁prana	-11.1594
▁kanakk	-11.1594
▁link	-11.1595
▁sauthee	-11.1597
▁vyavsaay	-11.1599
▁ninnum	-11.1599
ંડ	-11.16
चै	-11.1601
ശ്	-11.1601
▁soshal	-11.1602
▁1989	-11.1603
ಂಪ	-11.1603
▁migi	-11.1604
▁bhitar	-11.1605
atmaka	-11.1605
त्रा	-11.1607
▁krushi	-11.1608
▁mohor	-11.1609
ండ్	-11.1613
રિ	-11.1613
▁chahi	-11.1614
▁चित्र	-11.1617
▁ḍao	-11.1617
▁gya	-11.1617
▁udh	-11.1618
vathu	-11.1619
aavelu	-11.162
▁temaj	-11.1621
▁ٹیم	-11.1621
ᱣᱟᱜ	-11.1621
ীয়ে	-11.1621
▁samarp	-11.1622
▁jaavan	-11.1623
▁jemaa	-11.1623
▁hechch	-11.1626
▁प्रतिशत	-11.1626
que	-11.1627
ꯣꯡ	-11.1628
▁ൽ	-11.1629
▁hachche	-11.1629
▁sahaay	-11.1629
▁batt	-11.1629
▁लेकिन	-11.1631
ꯈꯤꯕ	-11.1632
wati	-11.1633
▁ٻي	-11.1633
shaastra	-11.1634
▁aadmi	-11.1635
▁अञ्चल	-11.1637
▁seba	-11.1638
arambh	-11.1639
▁ꯆꯥ	-11.1639
ങ്ങളും	-11.1639
▁बह	-11.1639
▁عالم	-11.164
ମାନଙ୍କ	-11.164
▁international	-11.164
▁bhavan	-11.1641
ṭṭhf	-11.1643
▁हायो	-11.1643
▁ਕਿਸੇ	-11.1647
ಶಾ	-11.1649
▁থো	-11.1649
▁ksh	-11.1649
ेण	-11.1649
▁germany	-11.1649
▁tyanna	-11.165
ھر	-11.165
▁sainik	-11.1652
▁कविता	-11.1654
▁ᱵᱟᱹ	-11.1655
▁apra	-11.1656
▁oucu	-11.1658
▁ḍuḍṭhfo	-11.1658
दय	-11.1659
▁दिवस	-11.166
▁যদিও	-11.1661
फे	-11.1662
▁ମୋ	-11.1665
▁sarba	-11.1665
्ये	-11.1666
▁isade	-11.1667
▁qaim	-11.1667
▁ار	-11.1667
▁స్	-11.1667
▁ಆದರೆ	-11.1667
▁cream	-11.1668
ꯤ	-11.1668
ਾਨ	-11.1669
▁موقع	-11.1673
ઢ	-11.1676
▁ḍkl	-11.1676
▁سُ	-11.1676
▁pawa	-11.1676
ୟା	-11.1676
62	-11.1677
▁स्थापना	-11.1677
▁gathan	-11.1677
▁ᱟᱢ	-11.1677
▁nodi	-11.1679
জাত	-11.168
ଆ	-11.1681
ಯೋ	-11.1686
▁kattu	-11.1688
ात्मक	-11.1688
▁स्थानीय	-11.1689
▁nishchit	-11.1689
nnem	-11.169
ଠାରୁ	-11.169
adhikar	-11.1691
▁La	-11.1693
▁মসি	-11.1694
▁hoithila	-11.1694
ಳೆ	-11.1695
भूत	-11.1695
▁ranj	-11.1695
▁pond	-11.1696
▁পায়	-11.1697
▁bhaxa	-11.1697
▁কাৰণ	-11.1697
▁tekhete	-11.1698
▁vivaah	-11.1698
▁maane	-11.1701
▁पैह्	-11.1703
shuddh	-11.1703
▁ਜੀ	-11.1703
▁mutasir	-11.1704
▁aavaa	-11.1704
▁अम	-11.1707
▁गांव	-11.1709
▁উত্তৰ	-11.1712
▁ڪل	-11.1713
చ్చ	-11.1713
▁1988	-11.1715
▁karajiba	-11.1717
▁janakari	-11.1717
▁wadhek	-11.1717
peksha	-11.1718
resh	-11.172
▁konkani	-11.1721
हान	-11.1721
▁sthaapit	-11.1722
ર્મ	-11.1724
▁habapariao	-11.1725
▁ese	-11.1726
▁rahul	-11.1727
▁sadhya	-11.1727
▁ꯃꯍꯥꯛ	-11.1728
عد	-11.1728
▁chaalu	-11.1729
▁puj	-11.173
▁hoichhi	-11.1731
▁पार्	-11.1733
૮	-11.1735
▁parjyanta	-11.1735
▁ayo	-11.1735
ittund	-11.1736
▁आसता	-11.1738
▁bhugatana	-11.1738
▁নির্	-11.1738
▁રા	-11.1739
▁அவ	-11.1739
taru	-11.1739
▁vyavasaya	-11.174
eyum	-11.1741
▁aelo	-11.1742
▁ديھ	-11.1743
▁ꯃꯁꯤꯗ	-11.1743
▁ଦିନ	-11.1743
▁متعلق	-11.1744
▁uuraatchi	-11.1744
▁jisame	-11.1744
▁डी	-11.1745
▁utpaad	-11.1745
चल	-11.1746
▁awami	-11.1746
ल्ड	-11.1747
▁shuruat	-11.1748
▁manunda	-11.1749
▁તરીકે	-11.175
▁ध्यान	-11.175
▁prahari	-11.175
منٹ	-11.1751
▁ᱱᱮ	-11.1754
ल्ली	-11.1754
▁خط	-11.1754
യുള്ള	-11.1754
▁سوال	-11.1754
▁aahara	-11.1754
▁vivar	-11.1754
▁abhijog	-11.1755
ward	-11.1755
▁पुरवण	-11.1756
खाय	-11.1756
▁તેના	-11.1756
▁noy	-11.1757
ಘ	-11.1758
య్య	-11.1759
▁gut	-11.176
ிக்க	-11.176
ᱨᱟᱭ	-11.176
ಭಾ	-11.1762
େଇ	-11.1762
లీ	-11.1765
▁hunde	-11.1767
▁سور	-11.1767
ిత	-11.1767
▁flo	-11.1767
নেল	-11.1768
ೀಯ	-11.1771
esana	-11.1771
ପୁର	-11.1773
▁izafah	-11.1774
▁تیار	-11.1774
▁ghatta	-11.1775
qk	-11.1776
▁সংখ্যা	-11.1776
ುತ್ತವೆ	-11.1776
▁shab	-11.1778
▁கால	-11.1779
▁അതി	-11.178
कडे	-11.178
▁१२	-11.178
▁assar	-11.1781
▁आत्म	-11.1781
▁kabi	-11.1782
▁oiriba	-11.1783
▁ubamaḍ	-11.1783
▁pag	-11.1784
ꯁꯤꯡꯒꯤ	-11.1785
᱐ᱮ	-11.1785
▁ગામ	-11.1785
▁मंग	-11.1787
▁aae	-11.1787
▁दल	-11.1788
ଯାଏ	-11.1789
▁pasa	-11.179
▁vini	-11.1792
▁मदद	-11.1792
▁upchar	-11.1793
▁bhayee	-11.1793
II	-11.1794
▁marza	-11.1795
മുള്ള	-11.1795
▁coll	-11.1795
thiyil	-11.1797
▁khwatin	-11.1798
▁ꯑꯣ	-11.1799
▁ବେ	-11.1799
▁mahu	-11.1801
ellaam	-11.1801
▁নামৰ	-11.1801
▁59	-11.1802
▁হল	-11.1802
chitra	-11.1803
▁bhut	-11.1804
کٹ	-11.1804
▁sampurna	-11.1805
▁ckr	-11.1808
▁वो	-11.1808
▁ব্য	-11.1808
▁adhe	-11.1809
▁pahal	-11.181
ᱪᱟ	-11.1811
▁khasa	-11.1812
ાણ	-11.1813
त्री	-11.1814
ಬ್ಬ	-11.1814
moo	-11.1815
▁درمیان	-11.1816
▁markazi	-11.1816
ীক	-11.1819
▁داخل	-11.1819
पार	-11.1819
ેડ	-11.182
▁farz	-11.1821
▁खुं	-11.1822
▁ghaat	-11.1822
▁গ্ৰহণ	-11.1822
ꯌꯦ	-11.1822
जाय	-11.1822
ꯟꯗ	-11.1822
karam	-11.1822
న్నారు	-11.1823
▁soochana	-11.1823
▁sikkh	-11.1823
gfx	-11.1825
ಹಿ	-11.1826
▁adugi	-11.1828
▁ರಲ್ಲಿ	-11.1829
ক্ষণ	-11.1829
▁देखें	-11.183
ফম	-11.1831
ರೇ	-11.1831
▁vishnu	-11.1833
▁raashi	-11.1833
▁ghano	-11.1835
▁parivar	-11.1836
ਵਾਈ	-11.1837
▁waghairah	-11.1837
▁mola	-11.1837
थो	-11.1837
▁mhana	-11.1837
▁col	-11.1837
ચાર	-11.1841
▁ᱦᱮ	-11.1841
▁saalan	-11.1844
▁कर्म	-11.1844
ിച്ച്	-11.1844
▁anand	-11.1845
ᱨᱤᱭᱟ	-11.1845
▁parampara	-11.1846
▁panth	-11.1846
▁bharpur	-11.1849
▁manumda	-11.185
▁போன்ற	-11.185
পাল	-11.1852
▁ziaada	-11.1852
કે	-11.1852
▁ഇത	-11.1854
لت	-11.1854
▁ꯂꯥꯢ	-11.1855
▁zilla	-11.1856
ppedunna	-11.1856
ಾಯಿ	-11.1856
▁He	-11.1859
▁land	-11.186
मन्त्र	-11.186
ଫଳ	-11.1861
▁अति	-11.1861
▁matlab	-11.1861
▁খঙ	-11.1864
ꯚ	-11.1864
▁bura	-11.1865
▁hass	-11.1867
▁nadu	-11.1869
▁மீ	-11.187
▁হৌ	-11.187
▁ধৰি	-11.187
▁ਖ਼	-11.1871
▁gruh	-11.1872
▁guruttopurno	-11.1873
▁وڃي	-11.1873
▁1987	-11.1873
.2	-11.1873
bhaba	-11.1874
▁uthe	-11.1874
▁ves	-11.1875
▁qadeem	-11.1876
বদি	-11.1876
▁samsthaana	-11.1876
▁mitter	-11.1877
యి	-11.1877
ology	-11.1878
ngale	-11.1878
▁यथा	-11.1878
▁شو	-11.188
▁meri	-11.188
▁कई	-11.1881
ଢ	-11.1882
▁sorkare	-11.1883
▁সমাজ	-11.1884
ᱫᱮ	-11.1885
▁ahile	-11.1886
▁ضرورت	-11.1887
▁अशें	-11.1887
ruttade	-11.1888
▁yetaa	-11.1888
ŋ	-11.189
▁1948	-11.1891
ਢ	-11.1891
▁সাহিত্য	-11.1891
ମ୍ବ	-11.1892
▁indi	-11.1892
sila	-11.1895
▁انهن	-11.1895
▁java	-11.1896
▁lanw	-11.1897
▁ꯂꯣꯟ	-11.1898
ବର	-11.1899
▁soochi	-11.19
گو	-11.1901
▁rachana	-11.1901
▁جاتی	-11.1903
▁অনেক	-11.1903
thala	-11.1903
ामा	-11.1904
▁xor	-11.1904
fxk	-11.1905
ddo	-11.1907
ধাৰ	-11.1907
▁उदक	-11.1908
▁veda	-11.1909
ంటే	-11.1909
▁khola	-11.1909
▁ꯂꯧ	-11.1909
▁netaa	-11.1909
▁करदे	-11.191
▁sahar	-11.191
▁theer	-11.1912
▁bawajood	-11.1912
స్థ	-11.1913
▁मानव	-11.1913
▁gharr	-11.1913
▁manda	-11.1914
sib	-11.1914
▁sand	-11.1915
▁বৃদ্ধি	-11.1918
ਨੂੰ	-11.1918
ꯍꯟ	-11.1918
ಚ್ಚ	-11.1919
▁ekjon	-11.192
▁ekkuva	-11.192
▁آخر	-11.1921
▁डो	-11.1921
્યું	-11.1922
▁agatya	-11.1922
▁सभी	-11.1923
guru	-11.1925
ಫ	-11.1926
▁taluk	-11.1927
▁क्रम	-11.1929
iruntha	-11.1929
स्स	-11.1929
▁goo	-11.193
▁খাদ্য	-11.1931
▁bayas	-11.1931
▁ಪು	-11.1932
gadaba	-11.1934
पट	-11.1935
▁miyama	-11.1935
▁abhineta	-11.1936
لام	-11.1937
enna	-11.1937
▁hap	-11.1937
▁buniyad	-11.1937
▁awashyak	-11.1939
▁maqsad	-11.194
▁neek	-11.1941
vidya	-11.1942
▁பே	-11.1943
ਪਰ	-11.1943
alaku	-11.1943
▁दिक्ख	-11.1945
▁تعالیٰ	-11.1945
▁জো	-11.1946
▁cheeni	-11.1946
▁iran	-11.1947
ખા	-11.1947
▁jorito	-11.1947
জী	-11.1947
▁আমি	-11.1948
▁کوشش	-11.1948
▁zad	-11.195
▁ৱাফম	-11.1952
▁chih	-11.1954
ેર	-11.1954
▁shh	-11.1954
സം	-11.1956
▁seri	-11.1956
▁baratuna	-11.1956
ress	-11.1956
▁chhadi	-11.1957
▁masail	-11.1957
▁laav	-11.1958
▁ചെ	-11.1959
বসু	-11.1959
▁mub	-11.196
▁ਰਹੇ	-11.1961
pora	-11.1963
▁సమీప	-11.1964
▁সঙ্গে	-11.1964
▁92	-11.1964
खै	-11.1964
യോഗ	-11.1965
▁jing	-11.1966
▁120	-11.1966
▁veej	-11.1967
▁ମଧ୍ୟରେ	-11.1972
▁kalp	-11.1973
marg	-11.1974
▁बन्द	-11.1974
▁cole	-11.1975
କର	-11.1976
▁nun	-11.1977
▁তু	-11.1977
▁budha	-11.1978
কাৰী	-11.1979
▁ઉપયોગ	-11.1979
▁مست	-11.1979
akkiya	-11.1979
pwrjwng	-11.198
یٖ	-11.198
▁oura	-11.1981
▁shayed	-11.1982
ങ്ങളുടെ	-11.1982
માંથી	-11.1983
▁ashok	-11.1983
▁ᱞᱮᱫᱟ	-11.1983
ರಣ	-11.1984
▁ಮೊದಲ	-11.1985
▁ataha	-11.1986
▁पुरुष	-11.1986
▁illi	-11.1986
▁press	-11.1987
▁tall	-11.1987
▁মীওই	-11.1988
سو	-11.1988
>	-11.1989
▁patni	-11.1989
▁साव	-11.199
▁১৫	-11.1992
গনি	-11.1992
▁آزاد	-11.1993
▁zakhmi	-11.1994
ங்களில்	-11.1995
▁تھ	-11.1995
▁दुई	-11.1996
ജ്	-11.1996
▁ट्र	-11.1997
▁అంద	-11.1998
▁besen	-11.1998
▁ᱟᱠᱟᱫ	-11.1998
▁বন্ধ	-11.2
▁ᱥᱟᱢᱟᱝ	-11.2
हरूले	-11.2001
മാർ	-11.2003
▁सभ	-11.2003
paadu	-11.2005
োন	-11.2006
▁reg	-11.2006
▁hasta	-11.2007
▁vaalaa	-11.2007
▁उक्त	-11.2008
▁जंदा	-11.2009
varum	-11.201
ائش	-11.201
▁സമ	-11.201
bidya	-11.2011
▁నే	-11.2011
▁৯	-11.2012
ियो	-11.2012
▁iuxgṭhfx	-11.2013
ৰাম	-11.2014
▁tison	-11.2016
▁sumar	-11.2018
lfo	-11.2019
▁ସମୟରେ	-11.2021
టా	-11.2021
▁teuluke	-11.2022
▁obhar	-11.2022
▁dhora	-11.2023
▁ભાગમાં	-11.2023
▁kabu	-11.2023
atthinte	-11.2026
▁danda	-11.2026
▁sweekar	-11.2026
jok	-11.2027
▁முறை	-11.2027
▁cle	-11.2028
ালয়	-11.2029
jama	-11.203
▁idara	-11.203
ನೆಯ	-11.203
▁gregori	-11.2034
kkunnu	-11.2035
▁palli	-11.2036
▁rasayanik	-11.2037
▁mhallyaar	-11.2037
রম	-11.2038
▁gongse	-11.2039
▁ᱮᱢᱟᱱ	-11.2039
eyn	-11.204
▁باب	-11.2042
▁राष्ट्रिय	-11.2042
▁society	-11.2043
▁avan	-11.2044
▁mulaqat	-11.2044
ppan	-11.2044
રુ	-11.2044
লক	-11.2046
▁account	-11.2046
▁samsthe	-11.2047
ꯛꯇ	-11.2048
▁thev	-11.2048
▁diyam	-11.2048
▁aataa	-11.2048
darshi	-11.205
▁garinchha	-11.205
▁bachay	-11.2051
▁રાખ	-11.2052
▁ಹೇಳ	-11.2052
▁xing	-11.2053
▁sikh	-11.2055
ଯା	-11.2056
▁maoti	-11.2057
▁ہوتے	-11.2058
▁kaba	-11.2059
ofj	-11.2059
▁उन्होंने	-11.2061
▁ମହା	-11.2063
▁कम्म	-11.2063
▁onno	-11.2063
▁matu	-11.2063
bhaava	-11.2063
▁کئی	-11.2065
▁कार्	-11.2066
▁गं	-11.2067
▁mudaa	-11.2067
dnyaa	-11.2068
▁꯱꯹	-11.2068
▁hoyechilo	-11.2068
khali	-11.2069
Rachna	-11.2074
▁सावराय	-11.2074
▁luwa	-11.2075
▁paatu	-11.2075
▁অব	-11.2076
▁samana	-11.2076
▁maanhan	-11.2076
shakti	-11.2077
▁taache	-11.2079
ுகிறது	-11.208
टार	-11.208
isuvudu	-11.2082
वाई	-11.2082
▁adakar	-11.2083
▁ᱯᱟᱨ	-11.2086
▁theek	-11.2087
▁khajgi	-11.2089
▁lknabktfñ	-11.2089
ৰ্ণ	-11.2091
ೆಯ	-11.2092
▁1975	-11.2092
▁समूह	-11.2093
▁अंग	-11.2093
▁prathamik	-11.2094
aobw	-11.2095
▁किश	-11.2095
dante	-11.2098
▁सामाजिक	-11.2098
▁xadharonote	-11.2099
▁সদস্য	-11.2101
▁ਰਿ	-11.2103
टल	-11.2103
ਧਾ	-11.2104
eene	-11.2104
avali	-11.2104
▁काय	-11.2104
▁taun	-11.2105
▁teel	-11.2105
▁zaan	-11.2106
வாக	-11.2108
سٽ	-11.2109
ত্য	-11.2109
varil	-11.211
eswar	-11.211
ੇਟ	-11.211
▁tagara	-11.211
▁मावफुं	-11.2111
▁आवेदन	-11.2114
▁ਕੁਝ	-11.2114
ుకో	-11.2114
▁मां	-11.2116
anusar	-11.2117
sel	-11.2119
tomo	-11.2119
▁ᱥᱮᱨᱮᱧ	-11.212
▁mfñ	-11.212
▁दैदेनगिरि	-11.2123
▁jeellama	-11.2126
ṭhk	-11.2127
▁sarkaari	-11.2128
ണ്ണ	-11.2129
▁বাংলাদেশ	-11.2129
▁ଅନ୍ୟ	-11.213
pg	-11.2131
▁देहा	-11.2131
▁ৰূপ	-11.2132
▁ଯାହା	-11.2132
▁લે	-11.2132
bhanda	-11.2135
ڑا	-11.2135
▁amda	-11.2138
▁aevaa	-11.2139
▁purba	-11.2139
▁bekeo	-11.2142
▁ماہ	-11.2144
▁ꯅꯠꯇ꯭ꯔꯒ	-11.2145
▁sangit	-11.2147
ulaku	-11.2151
▁اصل	-11.2151
▁rendu	-11.2151
ంగ	-11.2153
پا	-11.2154
▁ಮೂ	-11.2154
▁evam	-11.2154
नू	-11.2154
▁award	-11.2155
▁parne	-11.2156
حت	-11.2156
ۄ	-11.2157
▁insaaf	-11.2157
▁ঘটনা	-11.2157
▁ਮੋ	-11.2158
▁pali	-11.2159
▁kadem	-11.216
▁cah	-11.2161
▁maaje	-11.2163
paiki	-11.2163
▁viruddha	-11.2163
يس	-11.2164
▁जानानै	-11.2166
▁یعنی	-11.2166
▁nayey	-11.2168
पूर्व	-11.2168
▁sisu	-11.2169
▁tez	-11.217
▁somaonw	-11.2171
▁banne	-11.2171
chchu	-11.2172
▁गाउँपालिका	-11.2173
ధా	-11.2174
▁دوست	-11.2174
பட்ட	-11.2175
▁বিজ্ঞান	-11.2175
▁aff	-11.2175
▁addeham	-11.2176
▁maali	-11.2176
▁गरी	-11.2177
▁ఫ	-11.2177
▁lfñmkb	-11.2179
asuppa	-11.2179
▁વે	-11.2181
▁hayariba	-11.2182
▁ಭಾರತ	-11.2182
▁بڑے	-11.2183
ஷ	-11.2184
૬	-11.2185
▁manush	-11.2185
▁उनको	-11.2186
▁sankhyaa	-11.2187
پی	-11.2188
ḍhg	-11.2188
▁prer	-11.2189
▁vfqu	-11.2189
▁ᱥᱟᱯᱲᱟᱣ	-11.219
▁mhunn	-11.2191
▁ਸਮੇਂ	-11.2194
▁bhaasha	-11.2195
ാണ	-11.2197
▁پاک	-11.2198
ତେ	-11.2198
▁fari	-11.2199
bfx	-11.2199
▁visa	-11.22
▁roka	-11.2201
▁yantra	-11.2202
▁অন্য	-11.2203
مار	-11.2203
▁vaahan	-11.2204
▁talab	-11.2204
▁jolo	-11.2204
lloo	-11.2205
ڪا	-11.2206
▁ᱮᱱ	-11.2208
▁जारी	-11.2208
▁gull	-11.2209
▁1985	-11.2209
ியல்	-11.2209
▁ಸಹ	-11.221
▁ଯୋଗ	-11.2211
ਆ	-11.2211
য়াম্না	-11.2211
▁dwitiyo	-11.2213
paka	-11.2213
dcf	-11.2213
▁হোৱাৰ	-11.2214
tvaa	-11.2216
▁united	-11.2216
▁alavu	-11.2216
▁होदों	-11.2216
karee	-11.2217
▁laghu	-11.2217
▁tali	-11.2218
▁saame	-11.2218
▁sita	-11.2219
▁95	-11.222
▁saptah	-11.2221
▁समान	-11.2221
▁जिन	-11.2224
▁nibha	-11.2224
▁സു	-11.2225
▁करदा	-11.2225
▁hij	-11.2225
थाम	-11.2226
ੋਲ	-11.2227
▁முதல்	-11.223
▁पूरा	-11.223
▁ठा	-11.2232
▁medi	-11.2232
▁pune	-11.2233
▁nela	-11.2233
▁লু	-11.2235
▁saadhaarana	-11.2235
▁tetiya	-11.2235
▁form	-11.2236
జి	-11.2237
ppadukirathu	-11.2238
▁kaj	-11.2238
▁સ્વ	-11.2239
ppam	-11.224
▁hafta	-11.2241
▁farahim	-11.2241
▁sudhaar	-11.2243
▁kshetrama	-11.2246
▁জিলা	-11.2249
▁afa	-11.225
▁holey	-11.2251
purno	-11.2251
▁manchi	-11.2251
▁karnataka	-11.2253
पात	-11.2253
▁होनो	-11.2253
▁اول	-11.2254
▁swasthyo	-11.2255
▁gro	-11.2256
▁ṭu	-11.2257
▁बिजाथि	-11.2257
ಠ	-11.2257
▁bataaya	-11.2257
ᱥᱤᱭᱟ	-11.2258
▁neela	-11.226
▁mantra	-11.2261
▁ᱵᱩ	-11.2262
▁saih	-11.2263
▁hohn	-11.2264
▁हुई	-11.2266
▁swng	-11.2267
िये	-11.2267
▁ಸೇ	-11.2267
▁ನಂತರ	-11.2269
roopa	-11.227
▁প্রা	-11.227
ಿದರು	-11.2271
▁lena	-11.2271
▁میری	-11.2272
▁thod	-11.2274
▁vega	-11.2276
▁ହୁଏ	-11.2276
▁ਧ	-11.2276
ᱚᱜᱼᱟ	-11.2278
▁samaa	-11.2278
▁ਹੋਇਆ	-11.2279
फु	-11.2279
ਚਾਰ	-11.2279
▁होयो	-11.2281
▁ରା	-11.2282
▁bipan	-11.2283
▁प्रसिद्ध	-11.2285
ఫ్	-11.2286
▁केवल	-11.2286
▁taaqat	-11.2289
appatta	-11.2289
▁jasay	-11.229
ة	-11.2291
િંગ	-11.2292
▁garbh	-11.2293
▁bixoye	-11.2295
ꯍꯤ	-11.2296
▁program	-11.2298
▁ਸੋ	-11.2298
▁pratiyogita	-11.2301
▁poora	-11.2302
▁praant	-11.2303
▁Y	-11.2305
▁ಕೋ	-11.2307
▁uddhar	-11.2307
▁જી	-11.2309
▁biyw	-11.2309
▁athe	-11.2309
▁پسند	-11.231
▁sinima	-11.231
poorn	-11.231
▁এম	-11.2311
▁uttam	-11.2311
▁1956	-11.2313
▁book	-11.2314
റോ	-11.2314
▁چھہ	-11.2314
▁ক্ৰ	-11.2316
▁dosro	-11.2317
▁शासन	-11.2318
▁onchol	-11.2318
ହୁ	-11.2318
వచ్చు	-11.232
▁bash	-11.2321
pung	-11.2321
▁aavel	-11.2322
▁कथ	-11.2322
▁pareeksha	-11.2323
▁دینے	-11.2323
▁meng	-11.2325
▁zila	-11.2326
▁उपरांत	-11.2326
lktf	-11.2326
▁unhon	-11.2327
ुम	-11.2328
▁amit	-11.2328
ಸ್ಥ	-11.2329
▁कऽ	-11.2331
▁proman	-11.2332
▁juddho	-11.2333
▁kando	-11.2333
▁darry	-11.2335
▁ରାଜ	-11.2337
▁kahah	-11.2337
▁boruwa	-11.2337
▁फ्ही	-11.2339
▁ḍfmf	-11.234
berg	-11.2341
ئیں	-11.2342
▁hagra	-11.2342
▁ditte	-11.2343
▁मन्दिर	-11.2345
ফো	-11.2346
లేదు	-11.2347
▁garmi	-11.2347
▁মণিপুর	-11.2348
muga	-11.2348
ಲಾಗ	-11.235
voo	-11.2352
▁ஓ	-11.2354
▁ᱜᱤ	-11.2355
▁Me	-11.2356
ᱶ	-11.2357
▁فیصلہ	-11.2358
படி	-11.2358
▁samraksh	-11.2362
▁ᱠᱷᱟᱱ	-11.2363
▁dya	-11.2363
▁രോഗ	-11.2363
deva	-11.2364
sab	-11.2364
▁खि	-11.2365
▁कएल	-11.2365
ranga	-11.2367
▁parinaam	-11.2367
ايو	-11.2368
shva	-11.237
ப்படுகிறது	-11.237
▁ott	-11.2373
▁ganit	-11.2373
▁lana	-11.2374
▁ಮೇ	-11.2374
yaaya	-11.2375
▁putro	-11.2375
▁ഇന്ത്യ	-11.2377
कड	-11.2378
▁गृह	-11.2379
▁liae	-11.2379
▁emon	-11.238
▁ଉପରେ	-11.238
▁kalamdwng	-11.2381
तां	-11.2381
▁nya	-11.2382
▁राय	-11.2383
भ्य	-11.2383
ाबाद	-11.2384
asat	-11.2384
▁আল	-11.2387
▁छोट	-11.2387
ैं	-11.2389
▁wadh	-11.2389
▁att	-11.2389
▁ᱠᱷᱟ	-11.2389
भाष	-11.239
dweep	-11.2391
▁prasar	-11.2391
▁bhinn	-11.2392
▁pratibha	-11.2392
▁جیسے	-11.2392
▁kamp	-11.2393
ᱛᱩ	-11.2393
▁shakha	-11.2394
▁हेर	-11.2396
▁सफल	-11.2396
चन	-11.2398
krito	-11.2398
▁सार्वजनिक	-11.2399
rug	-11.2399
▁ज्ञान	-11.2399
ywbla	-11.2402
▁दिल	-11.2404
▁गोल	-11.2404
▁କିମ୍ବା	-11.2405
▁ਆਪਣੀ	-11.2405
▁abhy	-11.2408
▁goda	-11.241
न्ट	-11.2412
बन्ध	-11.2413
িতা	-11.2414
thaaga	-11.2414
▁network	-11.2415
▁sarvajanik	-11.2415
▁auto	-11.2415
▁असल्या	-11.2416
జీ	-11.2416
্তি	-11.2419
ਚੀ	-11.2419
▁ಹೆ	-11.2422
phal	-11.2422
▁monu	-11.2423
▁1962	-11.2423
▁व्यवस्था	-11.2425
▁शिक्षण	-11.2425
▁maatt	-11.2425
▁अस्य	-11.2426
वंश	-11.2427
▁npbpifx	-11.2427
▁aanganwad	-11.2428
▁nishan	-11.2428
▁An	-11.2429
▁gurṣf	-11.2429
▁tapas	-11.243
चेर	-11.243
mulok	-11.2431
لک	-11.2432
▁kahal	-11.2433
▁bitwn	-11.2434
▁yojna	-11.2434
uvudilla	-11.2434
মক	-11.2436
▁تعداد	-11.2437
▁unnat	-11.2439
▁aaro	-11.2439
▁پروگرام	-11.244
gro	-11.2441
▁বল	-11.2441
▁neevu	-11.2442
ᱭᱟᱜ	-11.2442
▁varsa	-11.2442
ندر	-11.2442
vesh	-11.2443
▁nalki	-11.2444
▁ਜੇ	-11.2444
ழை	-11.2445
▁pap	-11.2445
▁ਲੋਕ	-11.2446
lung	-11.2448
▁Ka	-11.2449
cle	-11.245
▁آئے	-11.245
▁येथे	-11.245
▁trump	-11.2451
ద్ధ	-11.2451
vugal	-11.2452
ંચ	-11.2452
▁पहिल	-11.2453
▁সরকার	-11.2453
▁gamini	-11.2453
▁ਰਿਹਾ	-11.2453
▁badiywi	-11.2454
انا	-11.2455
▁arthat	-11.2457
▁હો	-11.2457
ড়ি	-11.2457
▁फोसाव	-11.2457
▁mantralaya	-11.2458
ancher	-11.246
▁মত	-11.2466
ଝ	-11.2466
▁করার	-11.2467
▁viral	-11.2468
▁ਪੈ	-11.2469
sigi	-11.2471
▁roos	-11.2471
jone	-11.2472
▁shubh	-11.2472
▁स्थिति	-11.2473
ththal	-11.2475
▁माखासे	-11.2475
▁paibadina	-11.2475
▁মর	-11.2476
ਗੇ	-11.2478
▁امریکہ	-11.2478
ਲਿ	-11.2479
ஜ	-11.248
▁bheja	-11.248
ത്തു	-11.2481
▁मृत्यु	-11.2482
▁byabastha	-11.2482
▁કિ	-11.2482
ਜਾ	-11.2482
ીને	-11.2483
inchadam	-11.2483
▁آس	-11.2485
▁aaw	-11.2488
gga	-11.2489
▁നില	-11.2489
▁شھر	-11.249
▁उठ	-11.2491
▁garnu	-11.2492
▁ᱦᱩ	-11.2494
▁aatm	-11.2494
ళ్ళ	-11.2495
▁দ্বাৰা	-11.2495
தே	-11.2495
▁rwikati	-11.2495
▁mitai	-11.2495
▁ତାଙ୍କ	-11.2497
ilekku	-11.2501
kkunnathu	-11.2501
▁borh	-11.2502
▁maqaam	-11.2502
ழ்	-11.2505
▁commissioner	-11.2506
ଦ୍ର	-11.2506
▁കാണ	-11.2508
▁നൽക	-11.2509
୍ମ	-11.2509
▁ଜିଲ୍ଲା	-11.2511
kolla	-11.2511
ડો	-11.2513
▁mair	-11.2513
▁malee	-11.2514
పడ	-11.2515
▁kenae	-11.2516
▁mazhabi	-11.2516
▁भव	-11.2516
▁paalan	-11.2516
▁pahelaa	-11.2517
▁sampatti	-11.2517
▁bahi	-11.2517
▁sarhad	-11.2518
▁পথ	-11.2519
▁sakha	-11.2519
▁prostut	-11.252
▁satt	-11.252
▁असून	-11.2521
ꯁꯨꯕ	-11.2522
▁eradu	-11.2523
▁karadi	-11.2525
▁punsi	-11.2526
▁pahil	-11.2526
ntalya	-11.2526
▁पार्टी	-11.2528
▁stor	-11.2531
▁ariya	-11.2533
▁ਦੁਆਰਾ	-11.2533
▁hagrama	-11.2534
क्री	-11.2535
▁madd	-11.2536
uxf	-11.2536
▁ਹੋਏ	-11.2537
ᱠᱟᱨ	-11.2538
▁enda	-11.2541
▁aich	-11.2541
ായിരുന്നു	-11.2542
मिन	-11.2543
▁tantra	-11.2544
▁axgf	-11.2544
▁प्रकाश	-11.2545
▁তাদের	-11.2546
▁निर्णय	-11.2546
▁labhya	-11.2546
▁শো	-11.2549
▁gruha	-11.2549
▁ꯇꯧ	-11.255
nuparchha	-11.255
▁sabhane	-11.255
▁karne	-11.255
തീ	-11.2551
ttum	-11.2552
▁khettar	-11.2552
▁pariyojana	-11.2552
▁1979	-11.2553
▁dukhan	-11.2554
ਰੋ	-11.2554
▁केही	-11.2555
▁লোয়ননা	-11.2556
▁ring	-11.2557
▁दुर्	-11.2558
ଟେ	-11.2559
ᱩᱢ	-11.2559
ḍfx	-11.256
▁suchi	-11.2561
aalanu	-11.2561
▁கே	-11.2561
▁xadharon	-11.2561
▁sapha	-11.2562
▁prasa	-11.2562
▁In	-11.2565
▁himonto	-11.2565
▁পাছত	-11.2566
ଗତ	-11.2566
▁sarvat	-11.2569
▁akram	-11.257
▁fwrmayw	-11.2572
raashtra	-11.2573
ফু	-11.2575
▁ikrṭfñd	-11.2575
▁মন	-11.2575
▁thani	-11.2576
▁pitri	-11.2577
▁sazaa	-11.258
▁ᱥᱮᱞᱮᱫ	-11.2582
▁amdara	-11.2583
▁niyukt	-11.2583
ಂಟ	-11.2585
▁लाभ	-11.2586
▁sharira	-11.2586
▁خل	-11.2587
▁manuhor	-11.2587
▁aaz	-11.2587
rupe	-11.2588
▁একে	-11.2588
▁1977	-11.2589
▁petrol	-11.259
▁abhiyan	-11.259
▁valare	-11.2592
യു	-11.2593
र्न	-11.2593
▁gaman	-11.2593
▁vaapar	-11.2594
ᱵᱷᱚ	-11.2594
▁ਗਏ	-11.2595
▁জাতীয়	-11.2598
▁koll	-11.2598
▁qfñ	-11.2599
▁কল	-11.2599
log	-11.26
▁chhapa	-11.26
گي	-11.26
ڪري	-11.2601
▁ladwng	-11.2603
দী	-11.2604
▁রয়েছে	-11.2604
ᱢᱚᱱ	-11.2605
▁ralfo	-11.2607
▁bungtiyw	-11.2607
▁maasa	-11.2609
▁kher	-11.2609
▁bftf	-11.261
▁बादिब्ला	-11.2611
▁telugu	-11.2612
▁makkala	-11.2613
रम	-11.2614
▁جماعت	-11.2614
▁आर्थिक	-11.2614
पूर्ण	-11.2614
▁जाई	-11.2615
▁rakhna	-11.2619
▁یہِ	-11.262
yojan	-11.262
▁lfḍh	-11.262
▁upayukt	-11.2621
▁panchaayat	-11.2622
thokapa	-11.2623
ᱨᱟᱣ	-11.2623
▁viru	-11.2625
▁peyar	-11.2625
▁formula	-11.2625
ரோ	-11.2626
▁dusare	-11.2627
▁baap	-11.2628
ाएको	-11.2628
તુ	-11.2628
▁ইন	-11.2629
▁tayari	-11.2632
▁جائیں	-11.2632
▁தே	-11.2634
▁سکتے	-11.2635
varun	-11.2635
▁xokti	-11.2636
ੱਟ	-11.2637
▁सिम	-11.2638
▁आले	-11.2638
▁vaal	-11.264
▁bhagat	-11.264
com	-11.2641
▁راج	-11.2641
ର୍ତ୍ତ	-11.2641
▁सुरक्षा	-11.2641
▁mujab	-11.2642
▁যদি	-11.2642
▁saatro	-11.2643
▁karpaa	-11.2645
nyacha	-11.2646
[...]
